<pad>	0
<unk>	0
<s>	0
</s>	0
▁t	-0
he	-1
▁a	-2
in	-3
▁the	-4
er	-5
on	-6
▁,	-7
re	-8
▁s	-9
ed	-10
▁w	-11
▁o	-12
nd	-13
at	-14
▁.	-15
or	-16
en	-17
it	-18
▁c	-19
▁f	-20
is	-21
es	-22
ar	-23
▁b	-24
an	-25
▁of	-26
▁in	-27
al	-28
ing	-29
▁p	-30
as	-31
▁and	-32
▁to	-33
ic	-34
ro	-35
▁m	-36
▁d	-37
▁h	-38
ion	-39
le	-40
ou	-41
▁T	-42
▁re	-43
▁=	-44
▁S	-45
il	-46
▁A	-47
ent	-48
▁"	-49
▁1	-50
▁th	-51
st	-52
▁C	-53
el	-54
▁l	-55
▁@	-56
om	-57
▁e	-58
am	-59
▁n	-60
ad	-61
ac	-62
▁was	-63
▁M	-64
▁B	-65
ec	-66
▁on	-67
▁The	-68
ly	-69
ur	-70
▁'	-71
et	-72
ol	-73
id	-74
▁g	-75
▁I	-76
im	-77
-@	-78
▁@-@	-79
▁for	-80
ir	-81
iv	-82
ig	-83
ter	-84
ot	-85
▁H	-86
ut	-87
▁as	-88
us	-89
ow	-90
ith	-91
ay	-92
▁P	-93
▁2	-94
▁st	-95
ver	-96
her	-97
ation	-98
▁with	-99
▁be	-100
▁that	-101
▁R	-102
▁D	-103
ce	-104
un	-105
em	-106
▁W	-107
▁wh	-108
ch	-109
▁F	-110
▁by	-111
th	-112
▁al	-113
▁)	-114
▁(	-115
▁L	-116
▁is	-117
▁G	-118
ul	-119
▁con	-120
▁at	-121
ers	-122
▁N	-123
ct	-124
and	-125
os	-126
▁19	-127
ain	-128
▁an	-129
▁he	-130
▁it	-131
ag	-132
av	-133
rom	-134
um	-135
est	-136
▁J	-137
00	-138
▁E	-139
▁his	-140
▁r	-141
ri	-142
od	-143
▁O	-144
▁from	-145
ist	-146
▁com	-147
ap	-148
▁pro	-149
▁v	-150
op	-151
if	-152
res	-153
ld	-154
ill	-155
up	-156
ore	-157
ew	-158
ere	-159
igh	-160
▁In	-161
ies	-162
▁de	-163
ard	-164
art	-165
ber	-166
ort	-167
▁se	-168
ak	-169
ich	-170
ate	-171
▁were	-172
all	-173
ab	-174
ant	-175
ud	-176
oc	-177
ong	-178
▁ex	-179
qu	-180
▁ch	-181
▁or	-182
gh	-183
ear	-184
ess	-185
ity	-186
▁K	-187
ated	-188
▁sh	-189
▁pl	-190
ip	-191
ive	-192
ame	-193
▁U	-194
ect	-195
▁had	-196
ack	-197
our	-198
ast	-199
▁St	-200
▁su	-201
red	-202
se	-203
▁k	-204
▁which	-205
ge	-206
ment	-207
und	-208
▁le	-209
▁are	-210
ian	-211
ial	-212
ov	-213
▁not	-214
ell	-215
ost	-216
▁y	-217
▁sp	-218
ight	-219
▁tr	-220
ord	-221
ia	-222
ther	-223
ary	-224
ust	-225
rit	-226
ine	-227
pt	-228
▁3	-229
ical	-230
oun	-231
ave	-232
▁Ch	-233
▁un	-234
pp	-235
▁200	-236
▁inc	-237
cc	-238
fter	-239
irst	-240
▁but	-241
ould	-242
▁V	-243
ish	-244
ous	-245
ions	-246
te	-247
ff	-248
so	-249
▁comp	-250
ide	-251
▁20	-252
ure	-253
ra	-254
▁ro	-255
▁whe	-256
▁ar	-257
ub	-258
▁cont	-259
▁;	-260
▁first	-261
og	-262
ign	-263
ie	-264
wo	-265
ass	-266
▁its	-267
▁cl	-268
▁her	-269
orm	-270
▁–	-271
ue	-272
ok	-273
▁their	-274
▁int	-275
▁He	-276
ork	-277
▁res	-278
ater	-279
▁ab	-280
▁also	-281
out	-282
ond	-283
▁:	-284
ome	-285
▁ad	-286
mer	-287
age	-288
du	-289
ire	-290
ry	-291
▁us	-292
hed	-293
per	-294
▁4	-295
ime	-296
▁per	-297
low	-298
ans	-299
ru	-300
▁Th	-301
▁one	-302
▁have	-303
▁5	-304
▁who	-305
ally	-306
▁sc	-307
pl	-308
ile	-309
own	-310
▁rec	-311
.@	-312
▁@.@	-313
ance	-314
ted	-315
▁18	-316
▁two	-317
iz	-318
ition	-319
ence	-320
ugh	-321
uring	-322
▁has	-323
port	-324
▁been	-325
ts	-326
▁bec	-327
ree	-328
▁Al	-329
▁ag	-330
▁part	-331
ice	-332
▁201	-333
ough	-334
▁app	-335
▁dis	-336
,@	-337
▁@,@	-338
are	-339
▁j	-340
▁en	-341
ations	-342
▁over	-343
▁year	-344
lud	-345
ory	-346
▁this	-347
▁ser	-348
ely	-349
ke	-350
ound	-351
ember	-352
ction	-353
ach	-354
▁after	-355
▁off	-356
▁des	-357
▁up	-358
land	-359
ric	-360
▁play	-361
▁It	-362
ark	-363
over	-364
▁other	-365
ace	-366
ib	-367
▁they	-368
ade	-369
▁out	-370
▁man	-371
act	-372
▁te	-373
ult	-374
▁im	-375
ress	-376
▁includ	-377
ang	-378
▁Y	-379
ens	-380
ced	-381
ail	-382
urn	-383
wn	-384
one	-385
▁would	-386
ind	-387
▁time	-388
▁pre	-389
▁Un	-390
ep	-391
▁into	-392
ward	-393
ite	-394
man	-395
▁On	-396
we	-397
▁we	-398
ren	-399
ates	-400
▁him	-401
oin	-402
▁6	-403
able	-404
les	-405
▁ev	-406
▁she	-407
ased	-408
ited	-409
▁att	-410
amp	-411
▁ne	-412
ied	-413
▁comm	-414
ase	-415
end	-416
ors	-417
ount	-418
rough	-419
▁inter	-420
▁more	-421
oy	-422
ilm	-423
ons	-424
ood	-425
▁all	-426
ces	-427
old	-428
ings	-429
▁work	-430
▁7	-431
aw	-432
ild	-433
form	-434
vel	-435
ered	-436
▁Ar	-437
▁An	-438
▁new	-439
ose	-440
▁bet	-441
ick	-442
▁sec	-443
vi	-444
▁when	-445
ents	-446
▁fe	-447
ake	-448
fer	-449
inal	-450
▁cons	-451
iss	-452
▁Se	-453
▁8	-454
reat	-455
ve	-456
way	-457
▁Mar	-458
aus	-459
rop	-460
att	-461
round	-462
rib	-463
▁rem	-464
▁film	-465
ft	-466
gan	-467
▁dec	-468
▁during	-469
ved	-470
▁game	-471
orth	-472
ubl	-473
ason	-474
▁most	-475
▁9	-476
▁und	-477
▁As	-478
▁pr	-479
oth	-480
▁again	-481
▁199	-482
▁than	-483
▁ear	-484
hip	-485
ween	-486
▁only	-487
ix	-488
▁them	-489
ath	-490
ollow	-491
ational	-492
▁cent	-493
tern	-494
▁char	-495
▁about	-496
ob	-497
▁produ	-498
▁can	-499
ug	-500
▁New	-501
fore	-502
▁sup	-503
▁kn	-504
▁song	-505
▁between	-506
orn	-507
▁ret	-508
▁under	-509
▁rele	-510
▁later	-511
outh	-512
ton	-513
ey	-514
orld	-515
ict	-516
▁three	-517
▁act	-518
▁00	-519
▁col	-520
hn	-521
ook	-522
▁num	-523
▁through	-524
ron	-525
▁En	-526
▁so	-527
▁rel	-528
meric	-529
▁me	-530
▁qu	-531
▁acc	-532
▁Americ	-533
als	-534
aid	-535
▁while	-536
ters	-537
ank	-538
▁end	-539
lect	-540
▁Le	-541
▁fl	-542
ock	-543
ames	-544
▁pos	-545
▁ver	-546
ating	-547
▁ass	-548
▁sub	-549
ular	-550
▁where	-551
▁reg	-552
ever	-553
▁day	-554
▁pe	-555
▁bu	-556
ener	-557
ral	-558
ck	-559
▁Com	-560
ived	-561
▁made	-562
▁second	-563
▁record	-564
son	-565
ros	-566
bum	-567
hes	-568
▁am	-569
▁ep	-570
ision	-571
▁Re	-572
ool	-573
▁such	-574
▁000	-575
▁some	-576
▁form	-577
▁follow	-578
▁writ	-579
hen	-580
ph	-581
▁season	-582
▁four	-583
▁def	-584
ished	-585
▁mov	-586
▁Sp	-587
io	-588
▁mus	-589
ics	-590
▁there	-591
▁sy	-592
▁before	-593
▁years	-594
ained	-595
▁spec	-596
ike	-597
ode	-598
▁At	-599
▁/	-600
▁gr	-601
▁10	-602
▁lar	-603
▁gro	-604
▁ind	-605
ual	-606
▁album	-607
▁This	-608
ident	-609
ily	-610
▁Jo	-611
iel	-612
ann	-613
▁ac	-614
ific	-615
▁Sh	-616
owever	-617
▁call	-618
▁ent	-619
▁high	-620
▁used	-621
▁publ	-622
▁sur	-623
▁epis	-624
▁team	-625
ury	-626
▁being	-627
velop	-628
aj	-629
anc	-630
▁17	-631
▁exp	-632
ten	-633
▁do	-634
led	-635
▁then	-636
ane	-637
ife	-638
ris	-639
▁charac	-640
▁0	-641
▁pres	-642
other	-643
▁loc	-644
▁inv	-645
▁against	-646
▁number	-647
▁set	-648
▁After	-649
ious	-650
▁show	-651
▁sever	-652
ject	-653
▁co	-654
▁bl	-655
ale	-656
▁add	-657
ince	-658
▁became	-659
▁rece	-660
ines	-661
▁no	-662
ather	-663
▁well	-664
▁found	-665
ek	-666
ars	-667
▁including	-668
▁—	-669
▁United	-670
erm	-671
ause	-672
▁br	-673
▁Brit	-674
▁sing	-675
▁mon	-676
air	-677
▁perform	-678
its	-679
▁both	-680
▁rep	-681
▁12	-682
▁series	-683
▁pol	-684
ier	-685
ivers	-686
▁cap	-687
ert	-688
▁15	-689
ures	-690
ower	-691
▁lead	-692
▁198	-693
ik	-694
▁back	-695
ired	-696
▁194	-697
ram	-698
ober	-699
ement	-700
ities	-701
ning	-702
az	-703
▁main	-704
▁Wh	-705
▁Con	-706
▁develop	-707
▁Sc	-708
any	-709
▁She	-710
▁met	-711
ley	-712
iver	-713
▁ship	-714
elf	-715
▁min	-716
pen	-717
▁Eng	-718
▁imp	-719
overn	-720
olog	-721
ross	-722
▁long	-723
▁cre	-724
der	-725
▁did	-726
iet	-727
ll	-728
ised	-729
ird	-730
ven	-731
▁many	-732
▁episode	-733
ative	-734
uch	-735
ared	-736
▁air	-737
ful	-738
▁go	-739
▁stud	-740
tend	-741
irect	-742
ting	-743
▁em	-744
▁dep	-745
▁American	-746
▁dif	-747
ash	-748
▁mill	-749
▁orig	-750
▁several	-751
▁John	-752
▁pop	-753
▁Cl	-754
▁contin	-755
ute	-756
though	-757
▁Ind	-758
▁mat	-759
▁inst	-760
▁could	-761
▁war	-762
▁bro	-763
ouse	-764
▁16	-765
▁Br	-766
▁car	-767
▁said	-768
▁197	-769
▁ob	-770
ern	-771
▁known	-772
▁Z	-773
ually	-774
ield	-775
ah	-776
til	-777
▁sm	-778
ise	-779
ins	-780
chool	-781
view	-782
ued	-783
emb	-784
iam	-785
▁design	-786
▁11	-787
▁196	-788
erson	-789
▁desc	-790
▁conc	-791
▁began	-792
ople	-793
ty	-794
▁War	-795
▁Aust	-796
▁any	-797
▁comple	-798
hy	-799
▁est	-800
ange	-801
▁return	-802
▁De	-803
my	-804
aking	-805
ized	-806
▁run	-807
▁sign	-808
▁Bl	-809
▁Fr	-810
▁prov	-811
▁dist	-812
▁early	-813
▁near	-814
▁feat	-815
ism	-816
▁inf	-817
rap	-818
▁own	-819
ccess	-820
▁trans	-821
▁art	-822
▁eff	-823
▁released	-824
▁music	-825
▁until	-826
une	-827
▁bel	-828
enn	-829
▁called	-830
ided	-831
stem	-832
▁resp	-833
imes	-834
▁May	-835
▁Col	-836
▁pass	-837
ially	-838
ments	-839
▁crit	-840
▁disc	-841
ured	-842
ists	-843
oot	-844
ution	-845
▁down	-846
xt	-847
▁direct	-848
▁gener	-849
ull	-850
▁ins	-851
osed	-852
▁US	-853
▁group	-854
▁offic	-855
▁fin	-856
▁mod	-857
▁along	-858
vent	-859
▁may	-860
▁fam	-861
eb	-862
▁these	-863
▁British	-864
ajor	-865
▁Be	-866
▁13	-867
ax	-868
▁million	-869
▁mil	-870
els	-871
gest	-872
cept	-873
▁land	-874
ium	-875
▁open	-876
uc	-877
ains	-878
▁str	-879
yp	-880
▁Ad	-881
▁hist	-882
▁States	-883
erv	-884
▁World	-885
▁govern	-886
▁$	-887
▁people	-888
▁gu	-889
▁195	-890
ger	-891
▁Ger	-892
▁Sept	-893
▁Aug	-894
▁same	-895
▁use	-896
ible	-897
▁sim	-898
▁poin	-899
▁count	-900
▁September	-901
▁oper	-902
▁describ	-903
ink	-904
▁character	-905
▁August	-906
▁Car	-907
▁success	-908
wards	-909
amed	-910
▁For	-911
▁though	-912
▁Pl	-913
▁vi	-914
ets	-915
▁because	-916
aced	-917
▁around	-918
▁All	-919
▁Ap	-920
▁Ju	-921
▁14	-922
aining	-923
▁serv	-924
▁like	-925
▁Is	-926
▁ed	-927
▁start	-928
ove	-929
ner	-930
▁attack	-931
▁km	-932
▁occ	-933
ues	-934
ruct	-935
▁const	-936
▁193	-937
▁north	-938
▁system	-939
▁Q	-940
ina	-941
aving	-942
ped	-943
▁Pro	-944
▁Oct	-945
▁took	-946
▁win	-947
▁Nov	-948
▁However	-949
ants	-950
▁dr	-951
attle	-952
▁support	-953
▁following	-954
ility	-955
▁six	-956
ene	-957
▁received	-958
▁ann	-959
▁ele	-960
▁appear	-961
▁consid	-962
▁Tr	-963
▁ext	-964
▁century	-965
ically	-966
▁Austral	-967
▁Me	-968
▁var	-969
▁build	-970
▁class	-971
▁ever	-972
▁state	-973
▁aut	-974
▁prom	-975
ives	-976
▁five	-977
▁October	-978
rol	-979
▁final	-980
▁German	-981
▁area	-982
▁each	-983
▁partic	-984
▁small	-985
▁city	-986
▁head	-987
▁will	-988
oss	-989
ling	-990
▁Dec	-991
anu	-992
▁life	-993
▁]	-994
get	-995
▁[	-996
iving	-997
▁report	-998
▁Har	-999
▁191	-1000
▁North	-1001
ately	-1002
▁They	-1003
▁bo	-1004
▁York	-1005
inc	-1006
ians	-1007
uss	-1008
tle	-1009
▁June	-1010
gin	-1011
▁%	-1012
▁public	-1013
ording	-1014
▁week	-1015
▁world	-1016
ret	-1017
esp	-1018
▁major	-1019
hest	-1020
▁July	-1021
ril	-1022
▁mar	-1023
▁conf	-1024
..	-1025
▁By	-1026
▁November	-1027
▁ref	-1028
▁since	-1029
▁King	-1030
ection	-1031
ission	-1032
lish	-1033
▁med	-1034
por	-1035
ored	-1036
urch	-1037
med	-1038
▁band	-1039
idge	-1040
▁Comm	-1041
▁single	-1042
▁Will	-1043
ional	-1044
▁Gr	-1045
▁last	-1046
ural	-1047
omet	-1048
cl	-1049
▁March	-1050
▁Ed	-1051
▁differ	-1052
ient	-1053
▁just	-1054
ried	-1055
▁rest	-1056
ected	-1057
▁po	-1058
▁...	-1059
▁Can	-1060
▁det	-1061
▁April	-1062
ilt	-1063
eng	-1064
raft	-1065
ively	-1066
▁book	-1067
▁large	-1068
▁care	-1069
▁Pr	-1070
ales	-1071
▁school	-1072
▁hel	-1073
vious	-1074
▁sl	-1075
▁south	-1076
▁turn	-1077
rist	-1078
▁arr	-1079
aim	-1080
▁allow	-1081
ified	-1082
▁During	-1083
▁left	-1084
▁vers	-1085
▁Mc	-1086
▁30	-1087
▁month	-1088
▁due	-1089
ined	-1090
▁adv	-1091
empt	-1092
▁25	-1093
ble	-1094
▁Ph	-1095
avy	-1096
ats	-1097
▁Or	-1098
▁appro	-1099
▁incre	-1100
▁what	-1101
▁much	-1102
▁Ge	-1103
ague	-1104
▁line	-1105
▁played	-1106
▁December	-1107
by	-1108
▁another	-1109
▁third	-1110
▁expl	-1111
▁person	-1112
▁if	-1113
▁old	-1114
▁South	-1115
▁Janu	-1116
▁January	-1117
row	-1118
▁event	-1119
ne	-1120
aged	-1121
▁based	-1122
rote	-1123
ience	-1124
▁included	-1125
▁When	-1126
▁short	-1127
▁camp	-1128
▁track	-1129
▁tit	-1130
ograp	-1131
▁elect	-1132
ently	-1133
▁government	-1134
▁192	-1135
▁ph	-1136
▁wrote	-1137
▁lit	-1138
▁Gu	-1139
▁place	-1140
▁Eu	-1141
ony	-1142
▁bre	-1143
▁death	-1144
ple	-1145
alf	-1146
▁name	-1147
▁child	-1148
▁Te	-1149
ideo	-1150
ages	-1151
▁II	-1152
▁port	-1153
▁kill	-1154
▁won	-1155
ball	-1156
apan	-1157
▁prot	-1158
▁power	-1159
▁prog	-1160
▁review	-1161
ody	-1162
oad	-1163
▁home	-1164
▁described	-1165
▁family	-1166
▁Japan	-1167
oman	-1168
rench	-1169
▁previous	-1170
iod	-1171
▁dem	-1172
▁requ	-1173
enc	-1174
ital	-1175
▁way	-1176
▁eng	-1177
▁story	-1178
▁vis	-1179
▁named	-1180
iversity	-1181
▁Bro	-1182
▁now	-1183
ps	-1184
ont	-1185
▁dam	-1186
▁games	-1187
▁even	-1188
ilar	-1189
ged	-1190
mp	-1191
▁led	-1192
▁men	-1193
urther	-1194
ior	-1195
▁par	-1196
▁right	-1197
▁make	-1198
iven	-1199
▁attempt	-1200
▁leg	-1201
itions	-1202
omin	-1203
▁term	-1204
▁cour	-1205
▁poss	-1206
▁100	-1207
ness	-1208
▁very	-1209
▁those	-1210
▁His	-1211
▁hand	-1212
aff	-1213
▁National	-1214
▁Mus	-1215
▁best	-1216
ival	-1217
▁gun	-1218
ached	-1219
▁iss	-1220
▁command	-1221
▁Fl	-1222
▁opp	-1223
ister	-1224
▁belie	-1225
ott	-1226
oci	-1227
▁organ	-1228
▁Christ	-1229
▁repl	-1230
reen	-1231
▁top	-1232
embers	-1233
▁still	-1234
▁There	-1235
▁Europ	-1236
▁Feb	-1237
▁water	-1238
af	-1239
sh	-1240
ruary	-1241
▁February	-1242
ature	-1243
▁Bar	-1244
▁capt	-1245
▁French	-1246
▁next	-1247
ences	-1248
▁effect	-1249
▁list	-1250
self	-1251
▁storm	-1252
ances	-1253
▁view	-1254
▁original	-1255
▁species	-1256
▁period	-1257
ivision	-1258
▁within	-1259
lu	-1260
▁mark	-1261
riend	-1262
aken	-1263
▁exper	-1264
alk	-1265
rew	-1266
▁addition	-1267
▁cur	-1268
ched	-1269
ropical	-1270
▁join	-1271
▁spe	-1272
ox	-1273
ery	-1274
au	-1275
▁Europe	-1276
▁built	-1277
▁And	-1278
▁sold	-1279
hor	-1280
▁although	-1281
▁deb	-1282
▁former	-1283
▁late	-1284
▁dest	-1285
▁Her	-1286
line	-1287
▁We	-1288
tended	-1289
ards	-1290
▁wind	-1291
uted	-1292
ides	-1293
▁great	-1294
▁video	-1295
ring	-1296
▁release	-1297
ney	-1298
▁2010	-1299
▁init	-1300
augh	-1301
▁West	-1302
▁caus	-1303
ulation	-1304
▁21	-1305
▁Par	-1306
▁cover	-1307
▁held	-1308
▁days	-1309
▁real	-1310
itary	-1311
▁present	-1312
▁William	-1313
▁estab	-1314
ption	-1315
ech	-1316
▁control	-1317
▁members	-1318
aster	-1319
▁result	-1320
▁role	-1321
let	-1322
▁prop	-1323
lev	-1324
▁stand	-1325
ler	-1326
▁X	-1327
hel	-1328
▁Ear	-1329
▁tri	-1330
▁Am	-1331
▁polit	-1332
▁2008	-1333
▁few	-1334
br	-1335
▁among	-1336
▁equ	-1337
▁mid	-1338
▁came	-1339
urs	-1340
▁Mich	-1341
ham	-1342
▁match	-1343
atic	-1344
▁Min	-1345
akes	-1346
▁however	-1347
ense	-1348
▁cr	-1349
▁you	-1350
▁del	-1351
estern	-1352
▁my	-1353
▁2009	-1354
▁Char	-1355
▁side	-1356
▁different	-1357
▁often	-1358
▁&	-1359
▁town	-1360
▁2011	-1361
▁Air	-1362
ung	-1363
ays	-1364
▁continued	-1365
▁No	-1366
▁post	-1367
▁24	-1368
▁typ	-1369
▁av	-1370
▁hum	-1371
▁similar	-1372
ruction	-1373
▁sk	-1374
▁level	-1375
▁sent	-1376
ead	-1377
esc	-1378
oon	-1379
▁sug	-1380
▁Geor	-1381
▁local	-1382
omen	-1383
ves	-1384
▁tw	-1385
omb	-1386
▁claim	-1387
▁beh	-1388
side	-1389
▁22	-1390
▁mag	-1391
gy	-1392
ops	-1393
ying	-1394
▁English	-1395
tal	-1396
na	-1397
▁Rec	-1398
▁England	-1399
▁considered	-1400
ator	-1401
▁fre	-1402
ms	-1403
▁Man	-1404
▁Park	-1405
▁Lond	-1406
elt	-1407
uck	-1408
▁further	-1409
▁career	-1410
▁moved	-1411
ology	-1412
par	-1413
▁ant	-1414
read	-1415
▁City	-1416
▁London	-1417
ize	-1418
ract	-1419
▁take	-1420
▁production	-1421
app	-1422
ots	-1423
▁law	-1424
▁half	-1425
▁2007	-1426
que	-1427
rodu	-1428
▁El	-1429
reet	-1430
ices	-1431
▁One	-1432
ai	-1433
▁Co	-1434
▁Cal	-1435
▁west	-1436
▁sound	-1437
▁every	-1438
yl	-1439
▁2012	-1440
▁without	-1441
▁version	-1442
▁Although	-1443
▁commun	-1444
▁Acc	-1445
ering	-1446
▁appe	-1447
▁having	-1448
atter	-1449
▁history	-1450
me	-1451
▁el	-1452
▁Canad	-1453
▁become	-1454
eter	-1455
▁Cent	-1456
yle	-1457
ese	-1458
ampions	-1459
▁house	-1460
▁23	-1461
▁suggest	-1462
▁strong	-1463
▁cor	-1464
▁written	-1465
▁Ang	-1466
▁influ	-1467
bo	-1468
ches	-1469
▁Count	-1470
▁River	-1471
▁Dav	-1472
▁east	-1473
▁road	-1474
▁position	-1475
▁player	-1476
irc	-1477
vers	-1478
▁cast	-1479
▁less	-1480
▁With	-1481
ront	-1482
resent	-1483
ones	-1484
▁fore	-1485
▁low	-1486
rent	-1487
▁invol	-1488
▁refer	-1489
▁University	-1490
▁Pol	-1491
▁aff	-1492
ford	-1493
▁hig	-1494
▁order	-1495
ys	-1496
cess	-1497
▁Gener	-1498
▁bas	-1499
ape	-1500
sequ	-1501
▁trad	-1502
▁point	-1503
rest	-1504
▁prof	-1505
▁gave	-1506
iety	-1507
con	-1508
iment	-1509
▁far	-1510
aul	-1511
▁import	-1512
ges	-1513
ories	-1514
▁foot	-1515
utes	-1516
ailed	-1517
▁While	-1518
urric	-1519
▁ke	-1520
▁pat	-1521
anted	-1522
▁chang	-1523
craft	-1524
▁published	-1525
▁rad	-1526
▁company	-1527
▁tem	-1528
aun	-1529
▁190	-1530
ald	-1531
▁never	-1532
▁stat	-1533
▁club	-1534
isc	-1535
▁tro	-1536
▁Sm	-1537
▁produced	-1538
▁country	-1539
▁fact	-1540
▁Ne	-1541
▁announ	-1542
▁given	-1543
sp	-1544
▁total	-1545
ae	-1546
▁press	-1547
▁defe	-1548
ours	-1549
▁soc	-1550
▁find	-1551
▁friend	-1552
▁fire	-1553
▁common	-1554
▁returned	-1555
▁origin	-1556
roy	-1557
echn	-1558
▁er	-1559
ille	-1560
outher	-1561
▁High	-1562
▁youn	-1563
▁comb	-1564
ably	-1565
▁include	-1566
▁reported	-1567
▁good	-1568
▁went	-1569
ention	-1570
ison	-1571
▁vict	-1572
▁compet	-1573
▁lost	-1574
▁Ab	-1575
levision	-1576
▁program	-1577
▁nort	-1578
▁particular	-1579
▁2006	-1580
▁recorded	-1581
osp	-1582
▁adm	-1583
ush	-1584
▁project	-1585
outhern	-1586
▁Ex	-1587
▁ord	-1588
aren	-1589
aign	-1590
aying	-1591
gr	-1592
▁27	-1593
▁building	-1594
▁fun	-1595
▁Jack	-1596
▁using	-1597
▁stated	-1598
▁need	-1599
▁military	-1600
tain	-1601
ington	-1602
▁Cor	-1603
▁forces	-1604
▁ten	-1605
▁According	-1606
used	-1607
▁2013	-1608
yn	-1609
▁songs	-1610
▁50	-1611
▁ide	-1612
▁read	-1613
▁eight	-1614
▁should	-1615
▁popular	-1616
ief	-1617
lear	-1618
raw	-1619
▁Ass	-1620
ument	-1621
▁Bo	-1622
▁James	-1623
▁light	-1624
▁interest	-1625
▁lim	-1626
▁sit	-1627
▁author	-1628
▁himself	-1629
▁gl	-1630
▁father	-1631
atch	-1632
▁development	-1633
▁These	-1634
▁Sw	-1635
iness	-1636
▁times	-1637
▁critic	-1638
▁star	-1639
▁General	-1640
▁making	-1641
▁service	-1642
▁performance	-1643
▁26	-1644
urricane	-1645
itive	-1646
▁28	-1647
▁how	-1648
▁Af	-1649
▁ft	-1650
▁bus	-1651
▁cross	-1652
▁somet	-1653
ploy	-1654
▁sol	-1655
▁Australia	-1656
▁Roy	-1657
▁Sim	-1658
ords	-1659
▁40	-1660
▁sw	-1661
▁fr	-1662
ither	-1663
astern	-1664
ampionship	-1665
▁aircraft	-1666
▁ships	-1667
▁characters	-1668
▁Sec	-1669
▁months	-1670
▁represent	-1671
ression	-1672
▁battle	-1673
▁ter	-1674
alth	-1675
ases	-1676
▁State	-1677
▁189	-1678
ream	-1679
ency	-1680
ensive	-1681
ned	-1682
▁developed	-1683
hern	-1684
▁gen	-1685
▁Pres	-1686
▁chart	-1687
▁ground	-1688
ks	-1689
▁introdu	-1690
▁Comp	-1691
ries	-1692
▁remained	-1693
▁plan	-1694
▁across	-1695
acy	-1696
▁anim	-1697
▁Dr	-1698
▁title	-1699
▁died	-1700
▁force	-1701
aur	-1702
▁Ste	-1703
▁Sy	-1704
oll	-1705
work	-1706
▁national	-1707
dom	-1708
▁tour	-1709
fic	-1710
▁Army	-1711
▁signific	-1712
▁official	-1713
▁America	-1714
rie	-1715
▁squ	-1716
▁red	-1717
▁obs	-1718
ublic	-1719
▁sum	-1720
▁East	-1721
▁get	-1722
eder	-1723
ration	-1724
▁fac	-1725
▁suff	-1726
▁batt	-1727
bs	-1728
▁children	-1729
▁relations	-1730
▁intern	-1731
most	-1732
▁colle	-1733
▁Gl	-1734
isted	-1735
▁produc	-1736
ael	-1737
▁areas	-1738
▁island	-1739
▁Per	-1740
eth	-1741
▁campaign	-1742
▁pra	-1743
▁felt	-1744
▁ste	-1745
▁away	-1746
▁histor	-1747
▁Reg	-1748
▁fav	-1749
▁reached	-1750
itted	-1751
omp	-1752
hem	-1753
▁station	-1754
rick	-1755
▁noted	-1756
▁’	-1757
▁field	-1758
▁rock	-1759
reg	-1760
▁son	-1761
▁rank	-1762
▁bar	-1763
▁Sup	-1764
▁cy	-1765
ole	-1766
▁Hen	-1767
▁cop	-1768
ana	-1769
▁process	-1770
▁night	-1771
▁County	-1772
▁players	-1773
imately	-1774
▁created	-1775
▁2014	-1776
▁Road	-1777
duct	-1778
▁served	-1779
▁conv	-1780
▁television	-1781
ization	-1782
▁Phil	-1783
▁val	-1784
▁successful	-1785
▁tropical	-1786
▁too	-1787
ising	-1788
▁trav	-1789
▁2005	-1790
▁various	-1791
▁prim	-1792
▁test	-1793
▁League	-1794
▁destroy	-1795
▁29	-1796
▁seven	-1797
cast	-1798
▁Mon	-1799
idence	-1800
▁Rober	-1801
▁vol	-1802
▁earl	-1803
▁non	-1804
iber	-1805
▁George	-1806
ination	-1807
▁enc	-1808
▁begin	-1809
elling	-1810
▁Rich	-1811
ressed	-1812
▁style	-1813
▁coun	-1814
▁promot	-1815
▁political	-1816
▁Mad	-1817
▁seen	-1818
alt	-1819
▁performed	-1820
▁circ	-1821
rison	-1822
▁aver	-1823
▁announced	-1824
▁cond	-1825
ett	-1826
olution	-1827
ality	-1828
▁Rep	-1829
▁throughout	-1830
▁div	-1831
▁Pe	-1832
▁special	-1833
▁age	-1834
▁agre	-1835
▁Em	-1836
abor	-1837
▁decl	-1838
▁techn	-1839
▁full	-1840
▁look	-1841
▁black	-1842
▁thought	-1843
▁rev	-1844
irl	-1845
▁discover	-1846
▁put	-1847
iting	-1848
play	-1849
▁To	-1850
▁cost	-1851
▁followed	-1852
▁killed	-1853
▁help	-1854
▁writing	-1855
▁Division	-1856
▁see	-1857
▁significant	-1858
hic	-1859
▁Black	-1860
▁Japanese	-1861
lished	-1862
oice	-1863
▁cult	-1864
▁ident	-1865
▁Island	-1866
▁Bill	-1867
▁!	-1868
ster	-1869
▁let	-1870
▁fight	-1871
▁mm	-1872
▁Sch	-1873
hing	-1874
ways	-1875
▁aud	-1876
▁becom	-1877
▁Med	-1878
▁little	-1879
▁Street	-1880
ertain	-1881
▁hit	-1882
▁does	-1883
▁taken	-1884
enced	-1885
▁award	-1886
▁entire	-1887
▁fle	-1888
▁coll	-1889
iec	-1890
▁coast	-1891
▁Ser	-1892
▁able	-1893
▁arm	-1894
▁fem	-1895
field	-1896
less	-1897
▁Afric	-1898
▁appeared	-1899
conom	-1900
▁established	-1901
ivil	-1902
▁arch	-1903
▁Russ	-1904
umb	-1905
hys	-1906
to	-1907
ought	-1908
▁broad	-1909
▁started	-1910
▁impro	-1911
▁David	-1912
iron	-1913
odes	-1914
▁You	-1915
itar	-1916
▁wid	-1917
aval	-1918
ecut	-1919
▁activ	-1920
▁range	-1921
aves	-1922
▁Part	-1923
ask	-1924
iers	-1925
▁general	-1926
ators	-1927
rict	-1928
▁women	-1929
▁meet	-1930
▁caused	-1931
▁member	-1932
▁features	-1933
▁decided	-1934
ground	-1935
▁struct	-1936
ivid	-1937
ogn	-1938
ript	-1939
▁31	-1940
▁Mor	-1941
day	-1942
epend	-1943
den	-1944
urb	-1945
▁arg	-1946
here	-1947
▁eventually	-1948
▁modern	-1949
▁round	-1950
▁tre	-1951
uk	-1952
▁manag	-1953
▁Act	-1954
▁grow	-1955
▁Intern	-1956
ample	-1957
▁miles	-1958
▁cut	-1959
lected	-1960
▁route	-1961
▁Hist	-1962
omm	-1963
▁hold	-1964
▁pain	-1965
urg	-1966
alls	-1967
▁formed	-1968
▁conn	-1969
gether	-1970
▁together	-1971
cil	-1972
ament	-1973
▁front	-1974
▁located	-1975
▁pri	-1976
▁body	-1977
ope	-1978
▁others	-1979
▁Qu	-1980
ects	-1981
head	-1982
▁mix	-1983
▁base	-1984
▁important	-1985
emy	-1986
▁feet	-1987
rought	-1988
ius	-1989
ades	-1990
▁esc	-1991
unk	-1992
▁added	-1993
men	-1994
▁San	-1995
▁2004	-1996
▁Royal	-1997
▁points	-1998
orts	-1999
▁once	-2000
▁nov	-2001
▁playing	-2002
▁population	-2003
▁House	-2004
aces	-2005
ming	-2006
▁site	-2007
▁instead	-2008
▁redu	-2009
▁invest	-2010
▁stri	-2011
▁lik	-2012
▁School	-2013
▁mot	-2014
▁Other	-2015
▁insp	-2016
▁white	-2017
▁Australian	-2018
▁occur	-2019
▁saw	-2020
▁Squ	-2021
▁completed	-2022
dle	-2023
▁Michael	-2024
▁live	-2025
▁born	-2026
▁rather	-2027
▁crew	-2028
▁region	-2029
▁opened	-2030
▁ra	-2031
▁voc	-2032
▁188	-2033
▁My	-2034
▁surv	-2035
▁2015	-2036
cent	-2037
▁ve	-2038
▁Nor	-2039
▁action	-2040
▁mater	-2041
asing	-2042
istic	-2043
▁Ital	-2044
▁know	-2045
▁Indian	-2046
▁Henry	-2047
igned	-2048
▁pred	-2049
angu	-2050
ceed	-2051
ee	-2052
▁heavy	-2053
▁miss	-2054
▁associ	-2055
ficult	-2056
▁Some	-2057
▁race	-2058
ama	-2059
▁France	-2060
▁ask	-2061
▁comment	-2062
▁loss	-2063
▁peak	-2064
ements	-2065
▁works	-2066
▁186	-2067
▁behind	-2068
ells	-2069
wood	-2070
▁subsequ	-2071
▁difficult	-2072
▁inj	-2073
▁damage	-2074
▁worked	-2075
▁fif	-2076
▁pract	-2077
▁upon	-2078
▁originally	-2079
aps	-2080
ino	-2081
lic	-2082
ata	-2083
▁relationship	-2084
oney	-2085
▁proble	-2086
reek	-2087
▁z	-2088
▁separ	-2089
▁ren	-2090
▁Ag	-2091
ara	-2092
▁almost	-2093
lin	-2094
bert	-2095
▁close	-2096
▁stage	-2097
medi	-2098
▁host	-2099
▁young	-2100
▁individ	-2101
stit	-2102
▁Ham	-2103
▁brother	-2104
▁2000	-2105
▁creat	-2106
▁lack	-2107
▁weeks	-2108
▁mer	-2109
▁construction	-2110
▁mi	-2111
▁inform	-2112
▁Battle	-2113
ological	-2114
▁guns	-2115
azine	-2116
▁hon	-2117
▁clos	-2118
xic	-2119
▁scene	-2120
off	-2121
▁least	-2122
▁bomb	-2123
▁mult	-2124
▁Red	-2125
ray	-2126
▁Desp	-2127
oring	-2128
▁Cap	-2129
▁Ke	-2130
ids	-2131
▁187	-2132
go	-2133
▁leading	-2134
▁human	-2135
uff	-2136
anch	-2137
▁laun	-2138
▁econom	-2139
▁accept	-2140
▁Wash	-2141
antic	-2142
▁Robert	-2143
▁brought	-2144
nder	-2145
▁Vir	-2146
be	-2147
rug	-2148
▁featured	-2149
▁current	-2150
▁case	-2151
▁provided	-2152
▁fell	-2153
▁mother	-2154
▁neg	-2155
▁ball	-2156
▁Music	-2157
▁critics	-2158
itch	-2159
▁fourth	-2160
▁appoin	-2161
▁Star	-2162
▁indust	-2163
▁Angel	-2164
ving	-2165
int	-2166
▁tradition	-2167
▁working	-2168
▁business	-2169
▁quick	-2170
▁wanted	-2171
▁reach	-2172
▁estim	-2173
osition	-2174
▁vill	-2175
▁Game	-2176
board	-2177
▁respect	-2178
▁avail	-2179
▁average	-2180
▁recogn	-2181
ential	-2182
▁towards	-2183
▁dev	-2184
▁Port	-2185
ourn	-2186
▁generally	-2187
ength	-2188
▁king	-2189
arm	-2190
of	-2191
▁example	-2192
▁Follow	-2193
▁reve	-2194
▁allowed	-2195
▁Thom	-2196
▁engine	-2197
▁500	-2198
iding	-2199
com	-2200
▁dou	-2201
▁Great	-2202
▁President	-2203
▁mass	-2204
▁Hol	-2205
▁either	-2206
▁Bel	-2207
▁resul	-2208
earch	-2209
▁free	-2210
▁goal	-2211
▁reb	-2212
▁material	-2213
▁sex	-2214
▁ce	-2215
▁runs	-2216
▁wife	-2217
enes	-2218
▁Despite	-2219
▁plann	-2220
ened	-2221
▁foc	-2222
▁Best	-2223
▁army	-2224
▁particip	-2225
▁southern	-2226
ago	-2227
▁joined	-2228
▁profess	-2229
▁placed	-2230
▁Mary	-2231
▁office	-2232
arch	-2233
▁Hall	-2234
chie	-2235
▁fund	-2236
oms	-2237
artment	-2238
▁hor	-2239
▁Following	-2240
▁First	-2241
▁Washington	-2242
▁Cour	-2243
▁Mil	-2244
▁Roman	-2245
▁fig	-2246
▁hy	-2247
▁2003	-2248
▁events	-2249
▁Que	-2250
ky	-2251
▁Pal	-2252
aut	-2253
▁scored	-2254
ville	-2255
▁sour	-2256
ze	-2257
▁Ir	-2258
iff	-2259
▁troops	-2260
ica	-2261
▁Ale	-2262
▁Je	-2263
ude	-2264
cher	-2265
erous	-2266
▁proper	-2267
▁replaced	-2268
ills	-2269
adron	-2270
▁believed	-2271
▁party	-2272
▁designed	-2273
aper	-2274
▁35	-2275
▁soon	-2276
▁Cup	-2277
▁mph	-2278
▁length	-2279
▁Gro	-2280
west	-2281
▁Colle	-2282
▁Two	-2283
▁hours	-2284
▁European	-2285
▁exc	-2286
val	-2287
▁Wil	-2288
ification	-2289
ipp	-2290
▁indic	-2291
▁Play	-2292
▁langu	-2293
▁Sl	-2294
arn	-2295
ki	-2296
fall	-2297
▁Paul	-2298
iction	-2299
▁Mart	-2300
▁threat	-2301
▁largest	-2302
ights	-2303
▁conduct	-2304
▁White	-2305
co	-2306
ows	-2307
merc	-2308
▁park	-2309
▁object	-2310
▁°	-2311
▁hurricane	-2312
uel	-2313
rey	-2314
▁Atl	-2315
▁2001	-2316
▁surf	-2317
▁Mac	-2318
▁But	-2319
▁grad	-2320
anish	-2321
▁possible	-2322
▁rail	-2323
rian	-2324
▁president	-2325
▁Don	-2326
▁court	-2327
BC	-2328
▁vot	-2329
oor	-2330
▁Richard	-2331
▁La	-2332
▁earlier	-2333
▁Rou	-2334
▁contrib	-2335
emor	-2336
▁involved	-2337
▁victory	-2338
▁saying	-2339
▁break	-2340
▁nomin	-2341
▁desp	-2342
▁training	-2343
sc	-2344
amb	-2345
▁sequ	-2346
asion	-2347
▁ly	-2348
ateg	-2349
▁International	-2350
▁relig	-2351
oul	-2352
▁opening	-2353
▁exist	-2354
▁Championship	-2355
▁must	-2356
▁rul	-2357
▁hom	-2358
ishing	-2359
▁ill	-2360
▁available	-2361
▁regular	-2362
▁Lou	-2363
▁From	-2364
ander	-2365
▁employ	-2366
▁highest	-2367
▁initially	-2368
▁finished	-2369
▁northern	-2370
aled	-2371
▁units	-2372
▁director	-2373
▁Sing	-2374
▁particularly	-2375
▁respons	-2376
▁Canada	-2377
ula	-2378
▁percent	-2379
atural	-2380
▁Res	-2381
▁shot	-2382
▁dro	-2383
▁Val	-2384
ply	-2385
▁remov	-2386
inist	-2387
▁Thomas	-2388
ecutive	-2389
▁hard	-2390
iforn	-2391
▁piec	-2392
ography	-2393
hester	-2394
ores	-2395
▁priv	-2396
▁social	-2397
▁Met	-2398
▁Navy	-2399
▁contr	-2400
▁forced	-2401
▁turned	-2402
▁highway	-2403
▁McC	-2404
▁passed	-2405
edy	-2406
▁Mal	-2407
▁change	-2408
▁Dep	-2409
ilities	-2410
▁increased	-2411
▁regard	-2412
▁Californ	-2413
▁Charles	-2414
uture	-2415
▁stop	-2416
anding	-2417
sel	-2418
heast	-2419
▁Republic	-2420
ems	-2421
▁fall	-2422
▁keep	-2423
▁ended	-2424
▁meas	-2425
▁Virgin	-2426
ume	-2427
▁Rock	-2428
▁praised	-2429
▁phys	-2430
itte	-2431
▁Mag	-2432
now	-2433
▁Church	-2434
ended	-2435
▁studio	-2436
agon	-2437
▁2002	-2438
ique	-2439
▁central	-2440
key	-2441
asy	-2442
▁Cro	-2443
▁minutes	-2444
▁California	-2445
▁Kingdom	-2446
▁winds	-2447
▁Mexic	-2448
▁church	-2449
▁Ber	-2450
rup	-2451
▁disp	-2452
▁educ	-2453
uter	-2454
▁past	-2455
▁quar	-2456
itor	-2457
▁novel	-2458
▁appearance	-2459
inn	-2460
▁sym	-2461
▁treat	-2462
▁pers	-2463
▁Mid	-2464
▁inn	-2465
▁NY	-2466
▁super	-2467
ios	-2468
▁Smith	-2469
ump	-2470
tr	-2471
▁above	-2472
▁Off	-2473
▁taking	-2474
ston	-2475
▁unc	-2476
▁immedi	-2477
nes	-2478
▁quest	-2479
▁rain	-2480
▁Ac	-2481
oph	-2482
▁love	-2483
aughter	-2484
▁bill	-2485
▁Sen	-2486
▁ordered	-2487
▁according	-2488
ership	-2489
ference	-2490
▁Cast	-2491
pped	-2492
▁pot	-2493
▁better	-2494
▁hous	-2495
ma	-2496
▁India	-2497
itz	-2498
etwork	-2499
▁positive	-2500
▁achie	-2501
ecess	-2502
▁mean	-2503
hib	-2504
rated	-2505
▁Bay	-2506
for	-2507
anks	-2508
▁Pre	-2509
▁Associ	-2510
▁commerc	-2511
▁states	-2512
▁enough	-2513
▁independ	-2514
▁lower	-2515
arily	-2516
▁directed	-2517
usion	-2518
▁outside	-2519
▁ap	-2520
▁sil	-2521
apt	-2522
▁elements	-2523
antry	-2524
aint	-2525
▁interview	-2526
ocr	-2527
▁Sam	-2528
bor	-2529
▁clear	-2530
ability	-2531
▁feel	-2532
▁going	-2533
▁Company	-2534
▁speed	-2535
▁Route	-2536
▁itself	-2537
▁signed	-2538
ida	-2539
▁Govern	-2540
▁Bur	-2541
nel	-2542
▁think	-2543
▁1990	-2544
▁beg	-2545
▁esp	-2546
▁Union	-2547
▁Gold	-2548
▁recording	-2549
▁pur	-2550
elled	-2551
▁come	-2552
▁Times	-2553
leg	-2554
▁previously	-2555
▁spent	-2556
▁access	-2557
▁Christian	-2558
het	-2559
▁parts	-2560
▁failed	-2561
erved	-2562
▁assist	-2563
▁Award	-2564
▁60	-2565
▁185	-2566
▁international	-2567
eal	-2568
osing	-2569
▁Court	-2570
▁reviews	-2571
▁move	-2572
▁prob	-2573
▁45	-2574
ears	-2575
▁abs	-2576
uation	-2577
▁football	-2578
▁fort	-2579
ule	-2580
▁subject	-2581
▁Up	-2582
▁cred	-2583
▁viol	-2584
▁?	-2585
▁Mo	-2586
▁groups	-2587
atin	-2588
▁beginning	-2589
▁That	-2590
▁Stud	-2591
▁gold	-2592
reng	-2593
ibility	-2594
▁nar	-2595
▁required	-2596
▁bi	-2597
▁cycl	-2598
▁Brown	-2599
lying	-2600
▁Jos	-2601
▁frequ	-2602
▁£	-2603
ands	-2604
▁told	-2605
▁despite	-2606
▁Vict	-2607
eum	-2608
gen	-2609
amer	-2610
aker	-2611
▁wat	-2612
▁prem	-2613
▁Peter	-2614
▁flow	-2615
▁rap	-2616
isl	-2617
▁slow	-2618
▁Scott	-2619
▁nine	-2620
oid	-2621
usp	-2622
onst	-2623
▁Oly	-2624
▁ey	-2625
ittee	-2626
▁-	-2627
▁whose	-2628
▁whom	-2629
▁Day	-2630
▁Mount	-2631
irth	-2632
ready	-2633
▁idea	-2634
▁travel	-2635
atory	-2636
▁Olymp	-2637
▁score	-2638
▁western	-2639
oo	-2640
rief	-2641
▁bridge	-2642
▁evidence	-2643
▁introduced	-2644
▁study	-2645
ergy	-2646
▁product	-2647
▁Tom	-2648
▁Art	-2649
▁don	-2650
▁Alex	-2651
▁musical	-2652
▁pressure	-2653
ulf	-2654
▁quickly	-2655
▁College	-2656
▁future	-2657
▁give	-2658
▁cru	-2659
▁center	-2660
alion	-2661
▁radio	-2662
▁UK	-2663
ecially	-2664
▁cou	-2665
▁Ev	-2666
ully	-2667
▁Over	-2668
▁section	-2669
▁transfer	-2670
▁debut	-2671
▁films	-2672
▁Dan	-2673
▁additional	-2674
▁asked	-2675
▁magazine	-2676
ex	-2677
▁poor	-2678
▁claimed	-2679
asons	-2680
▁civil	-2681
▁streng	-2682
▁Western	-2683
ania	-2684
▁God	-2685
▁Germany	-2686
aries	-2687
▁league	-2688
▁prevent	-2689
▁liter	-2690
▁32	-2691
▁community	-2692
▁Mark	-2693
▁female	-2694
acted	-2695
▁lines	-2696
▁eastern	-2697
onse	-2698
▁wood	-2699
oke	-2700
▁Mill	-2701
aring	-2702
▁op	-2703
▁phot	-2704
▁especially	-2705
▁cal	-2706
▁Du	-2707
airs	-2708
▁flood	-2709
▁screen	-2710
▁usually	-2711
▁already	-2712
▁pil	-2713
▁Chic	-2714
▁issue	-2715
▁1970	-2716
berg	-2717
anded	-2718
▁shows	-2719
ift	-2720
▁size	-2721
▁Spanish	-2722
▁contract	-2723
▁36	-2724
▁Pat	-2725
▁arrived	-2726
mar	-2727
▁di	-2728
▁guitar	-2729
inct	-2730
▁env	-2731
▁bur	-2732
▁except	-2733
alled	-2734
▁occup	-2735
▁estimated	-2736
▁1980	-2737
▁deal	-2738
ites	-2739
asc	-2740
▁che	-2741
▁might	-2742
▁Most	-2743
▁Jackson	-2744
▁Awards	-2745
▁hop	-2746
▁approx	-2747
▁money	-2748
▁clim	-2749
▁determ	-2750
igan	-2751
▁Grand	-2752
inese	-2753
▁construct	-2754
▁acqu	-2755
▁Hot	-2756
▁der	-2757
▁anal	-2758
▁Frank	-2759
▁carried	-2760
▁Early	-2761
▁key	-2762
▁Coun	-2763
back	-2764
▁Im	-2765
▁territ	-2766
yr	-2767
▁defeated	-2768
▁Tex	-2769
▁sometimes	-2770
▁river	-2771
▁surface	-2772
▁Chinese	-2773
▁market	-2774
▁75	-2775
ga	-2776
▁remain	-2777
onna	-2778
▁anti	-2779
▁destroyed	-2780
▁episodes	-2781
▁lab	-2782
iter	-2783
▁larger	-2784
▁Later	-2785
▁Soc	-2786
▁sat	-2787
unt	-2788
▁Mer	-2789
▁response	-2790
▁certain	-2791
▁Dem	-2792
ession	-2793
▁80	-2794
porary	-2795
▁kil	-2796
▁police	-2797
▁lyric	-2798
liam	-2799
▁sea	-2800
omer	-2801
▁bird	-2802
▁self	-2803
ha	-2804
▁remaining	-2805
▁suggested	-2806
▁pen	-2807
▁food	-2808
▁Film	-2809
▁block	-2810
▁minor	-2811
▁Cong	-2812
▁Hill	-2813
▁becoming	-2814
▁Cr	-2815
▁latter	-2816
▁Britain	-2817
▁proposed	-2818
▁friends	-2819
▁commercial	-2820
▁discuss	-2821
▁Los	-2822
inent	-2823
▁Bec	-2824
▁brief	-2825
▁consider	-2826
▁students	-2827
▁Rob	-2828
▁prior	-2829
▁commission	-2830
ires	-2831
▁Ben	-2832
ulated	-2833
▁polic	-2834
▁media	-2835
▁summer	-2836
▁type	-2837
▁decision	-2838
ests	-2839
▁draw	-2840
▁Virginia	-2841
▁entered	-2842
ror	-2843
incip	-2844
ension	-2845
liament	-2846
▁Sov	-2847
change	-2848
▁complete	-2849
▁Force	-2850
▁If	-2851
tt	-2852
▁1999	-2853
▁personal	-2854
▁limited	-2855
ij	-2856
▁Pac	-2857
ournal	-2858
▁complet	-2859
acing	-2860
▁Franc	-2861
igade	-2862
▁surround	-2863
▁Song	-2864
▁China	-2865
▁language	-2866
anced	-2867
▁girl	-2868
▁emer	-2869
▁trib	-2870
▁Soviet	-2871
▁staff	-2872
▁changes	-2873
▁1960	-2874
▁room	-2875
▁effects	-2876
▁Association	-2877
▁concern	-2878
▁investig	-2879
▁influence	-2880
▁Lake	-2881
▁Victor	-2882
▁doc	-2883
▁date	-2884
erve	-2885
▁writer	-2886
▁fail	-2887
▁Club	-2888
▁1998	-2889
▁Flor	-2890
▁Chicago	-2891
▁leaving	-2892
▁appointed	-2893
AA	-2894
▁Mont	-2895
▁higher	-2896
▁tar	-2897
▁provide	-2898
▁Second	-2899
▁den	-2900
▁pay	-2901
▁deep	-2902
uit	-2903
▁Oper	-2904
iles	-2905
▁wide	-2906
bers	-2907
▁Ter	-2908
▁awarded	-2909
▁multip	-2910
ending	-2911
▁winning	-2912
enth	-2913
itt	-2914
▁prison	-2915
mon	-2916
cy	-2917
▁Many	-2918
▁intended	-2919
iation	-2920
▁rights	-2921
▁research	-2922
▁agreed	-2923
▁susp	-2924
▁teams	-2925
imum	-2926
▁election	-2927
▁broadcast	-2928
II	-2929
abit	-2930
▁division	-2931
▁scenes	-2932
▁contro	-2933
▁33	-2934
ny	-2935
▁Do	-2936
▁Old	-2937
▁tax	-2938
▁diss	-2939
▁Just	-2940
▁lo	-2941
ises	-2942
aded	-2943
▁arrang	-2944
▁equip	-2945
▁jud	-2946
▁intens	-2947
▁nearly	-2948
idents	-2949
rd	-2950
uz	-2951
▁establish	-2952
uing	-2953
sy	-2954
▁daughter	-2955
▁helped	-2956
▁syn	-2957
atively	-2958
▁Inf	-2959
▁Edward	-2960
▁paren	-2961
▁overall	-2962
▁300	-2963
atives	-2964
▁transport	-2965
▁Super	-2966
▁remains	-2967
▁Green	-2968
▁create	-2969
▁married	-2970
▁Louis	-2971
▁70	-2972
▁37	-2973
▁favor	-2974
▁structure	-2975
ging	-2976
ederal	-2977
▁themsel	-2978
▁themselves	-2979
▁longer	-2980
▁experience	-2981
▁operations	-2982
▁living	-2983
▁purch	-2984
▁supported	-2985
▁Pri	-2986
ari	-2987
lo	-2988
▁captured	-2989
▁conclud	-2990
▁vehic	-2991
▁Party	-2992
▁Love	-2993
▁mount	-2994
▁script	-2995
▁Council	-2996
▁ens	-2997
▁changed	-2998
▁History	-2999
tained	-3000
▁mostly	-3001
▁running	-3002
▁fleet	-3003
▁bow	-3004
▁approximately	-3005
eph	-3006
▁big	-3007
▁dark	-3008
andon	-3009
▁done	-3010
▁stars	-3011
▁Serv	-3012
ria	-3013
can	-3014
▁Gre	-3015
▁184	-3016
▁temper	-3017
▁voice	-3018
oys	-3019
▁dram	-3020
▁Kn	-3021
teen	-3022
▁cann	-3023
▁1997	-3024
▁our	-3025
▁tracks	-3026
▁buildings	-3027
▁copies	-3028
▁natural	-3029
▁related	-3030
▁Enter	-3031
▁fifth	-3032
pris	-3033
▁ult	-3034
▁thus	-3035
▁producer	-3036
iant	-3037
▁Pacific	-3038
▁feature	-3039
ronic	-3040
▁Atlantic	-3041
▁compared	-3042
▁woman	-3043
▁space	-3044
▁Tor	-3045
▁increasing	-3046
▁cat	-3047
olic	-3048
ena	-3049
▁Adm	-3050
▁forward	-3051
▁coin	-3052
▁dead	-3053
thing	-3054
▁issued	-3055
NA	-3056
▁complex	-3057
enty	-3058
▁Jim	-3059
▁Inter	-3060
▁countries	-3061
▁imm	-3062
▁Town	-3063
▁Sal	-3064
umn	-3065
▁Since	-3066
iser	-3067
ado	-3068
iral	-3069
order	-3070
▁App	-3071
▁Ant	-3072
▁soldiers	-3073
ste	-3074
▁planned	-3075
▁instr	-3076
▁extended	-3077
▁Wood	-3078
de	-3079
▁deg	-3080
▁likely	-3081
iqu	-3082
hood	-3083
▁Mur	-3084
▁How	-3085
lebr	-3086
▁board	-3087
▁Canadian	-3088
▁bring	-3089
▁Billboard	-3090
▁weap	-3091
▁private	-3092
▁Fort	-3093
▁capital	-3094
▁distrib	-3095
▁model	-3096
▁heav	-3097
▁Str	-3098
▁quarter	-3099
▁fans	-3100
▁withd	-3101
▁probably	-3102
rial	-3103
▁mixed	-3104
▁concept	-3105
▁officers	-3106
▁really	-3107
▁includes	-3108
▁movement	-3109
▁lyrics	-3110
oint	-3111
▁Camp	-3112
▁Back	-3113
▁initial	-3114
▁Carol	-3115
▁Sever	-3116
ospital	-3117
hold	-3118
▁Fle	-3119
▁chall	-3120
ounds	-3121
ironment	-3122
wer	-3123
ties	-3124
▁mur	-3125
▁emb	-3126
▁services	-3127
uries	-3128
▁terms	-3129
▁mach	-3130
▁location	-3131
▁Miss	-3132
sen	-3133
▁cm	-3134
▁Ol	-3135
isions	-3136
vin	-3137
▁Sun	-3138
▁whether	-3139
▁fir	-3140
▁status	-3141
cing	-3142
▁compan	-3143
itect	-3144
che	-3145
ibr	-3146
▁Rad	-3147
▁damaged	-3148
▁norm	-3149
burg	-3150
▁breed	-3151
ili	-3152
etic	-3153
▁always	-3154
▁network	-3155
▁Not	-3156
▁course	-3157
▁subsequently	-3158
▁Texas	-3159
▁Des	-3160
▁attend	-3161
▁face	-3162
ously	-3163
▁focus	-3164
▁Both	-3165
▁Another	-3166
uth	-3167
▁Final	-3168
▁uns	-3169
▁flag	-3170
oe	-3171
▁immediately	-3172
▁via	-3173
▁problems	-3174
▁raised	-3175
▁Its	-3176
▁Mr	-3177
vey	-3178
▁administ	-3179
▁cer	-3180
▁Tur	-3181
ograph	-3182
ware	-3183
▁react	-3184
▁health	-3185
▁Florida	-3186
▁Dist	-3187
▁domin	-3188
▁consist	-3189
imin	-3190
▁meth	-3191
bour	-3192
▁Lord	-3193
▁tons	-3194
▁individual	-3195
▁depart	-3196
ams	-3197
▁Sea	-3198
riage	-3199
▁Earth	-3200
▁tor	-3201
▁approach	-3202
▁something	-3203
▁Const	-3204
▁increase	-3205
uf	-3206
▁sales	-3207
▁removed	-3208
▁associated	-3209
▁leave	-3210
raz	-3211
▁Cont	-3212
▁adop	-3213
▁Scot	-3214
▁leader	-3215
▁plans	-3216
▁lay	-3217
▁Center	-3218
▁numbers	-3219
▁Bre	-3220
uments	-3221
▁discovered	-3222
uals	-3223
▁Kh	-3224
▁shoot	-3225
ription	-3226
▁scient	-3227
umed	-3228
▁Africa	-3229
▁amb	-3230
▁Emp	-3231
▁appears	-3232
lands	-3233
▁visit	-3234
▁plot	-3235
▁ranked	-3236
▁sch	-3237
ka	-3238
▁inspired	-3239
▁Big	-3240
▁38	-3241
▁anc	-3242
▁makes	-3243
▁Batt	-3244
▁altern	-3245
▁Manc	-3246
orning	-3247
▁2016	-3248
▁meeting	-3249
ections	-3250
aily	-3251
▁battles	-3252
hips	-3253
itude	-3254
▁Martin	-3255
▁offered	-3256
cean	-3257
▁canc	-3258
▁Angeles	-3259
▁suffered	-3260
▁contains	-3261
▁ran	-3262
iest	-3263
▁Pet	-3264
▁attacks	-3265
▁majority	-3266
▁Year	-3267
▁TV	-3268
▁lived	-3269
▁manager	-3270
▁professional	-3271
▁yet	-3272
▁upper	-3273
▁Law	-3274
▁numerous	-3275
▁experi	-3276
▁shown	-3277
ify	-3278
▁Corps	-3279
itation	-3280
▁Bet	-3281
▁colon	-3282
▁cause	-3283
▁nature	-3284
well	-3285
▁Jew	-3286
aging	-3287
aught	-3288
▁Kent	-3289
▁Ro	-3290
▁bene	-3291
▁DV	-3292
▁oil	-3293
▁birth	-3294
▁Highway	-3295
▁launched	-3296
▁financ	-3297
▁Sir	-3298
▁job	-3299
▁carry	-3300
▁smaller	-3301
ails	-3302
estival	-3303
▁pow	-3304
izing	-3305
▁counter	-3306
▁conditions	-3307
▁information	-3308
▁got	-3309
▁standard	-3310
▁moving	-3311
▁critical	-3312
▁respectively	-3313
▁sen	-3314
▁prec	-3315
▁Viet	-3316
▁Johnson	-3317
▁confir	-3318
▁90	-3319
gely	-3320
▁1950	-3321
▁Brad	-3322
▁referred	-3323
▁Trans	-3324
▁needed	-3325
▁whole	-3326
▁BC	-3327
▁celebr	-3328
▁attempted	-3329
▁1995	-3330
▁1996	-3331
ault	-3332
▁hour	-3333
▁goals	-3334
vert	-3335
venue	-3336
▁village	-3337
▁incor	-3338
▁composed	-3339
▁Nort	-3340
ounted	-3341
▁issues	-3342
▁accomp	-3343
olk	-3344
ctor	-3345
▁183	-3346
▁slight	-3347
▁listed	-3348
▁collect	-3349
▁underst	-3350
▁Ox	-3351
▁Bow	-3352
▁occurred	-3353
▁Tour	-3354
▁takes	-3355
▁dig	-3356
▁mom	-3357
▁34	-3358
▁Out	-3359
ayed	-3360
▁gre	-3361
▁Zeal	-3362
▁industry	-3363
▁Crit	-3364
▁largely	-3365
▁Penn	-3366
▁flight	-3367
▁Ma	-3368
▁saf	-3369
▁secret	-3370
▁assigned	-3371
undred	-3372
▁Central	-3373
▁cand	-3374
▁trade	-3375
▁revealed	-3376
▁singer	-3377
▁Mexico	-3378
ider	-3379
▁sem	-3380
▁inters	-3381
ective	-3382
ona	-3383
▁180	-3384
uated	-3385
▁Kore	-3386
▁selected	-3387
▁pit	-3388
▁primary	-3389
▁rate	-3390
▁plant	-3391
▁thr	-3392
▁books	-3393
▁princip	-3394
aches	-3395
▁audience	-3396
▁link	-3397
▁below	-3398
▁minute	-3399
▁exam	-3400
▁Gar	-3401
▁Michigan	-3402
▁Queen	-3403
▁finally	-3404
arian	-3405
▁ang	-3406
▁Under	-3407
▁religious	-3408
▁Squadron	-3409
ortun	-3410
▁Cam	-3411
▁grand	-3412
▁active	-3413
urity	-3414
▁Group	-3415
▁method	-3416
win	-3417
▁DVD	-3418
bury	-3419
▁1994	-3420
▁bad	-3421
▁resulted	-3422
urt	-3423
▁legisl	-3424
iled	-3425
▁yards	-3426
ux	-3427
▁artist	-3428
▁operation	-3429
▁expected	-3430
▁commented	-3431
▁Italian	-3432
ken	-3433
down	-3434
▁Wal	-3435
▁forest	-3436
oud	-3437
▁purp	-3438
▁Zealand	-3439
▁depression	-3440
▁reason	-3441
▁49	-3442
▁double	-3443
▁sett	-3444
▁competition	-3445
▁mission	-3446
▁attacked	-3447
▁Cle	-3448
▁Mel	-3449
▁heart	-3450
enant	-3451
▁talk	-3452
ighter	-3453
▁sal	-3454
▁word	-3455
ani	-3456
adium	-3457
▁officer	-3458
▁request	-3459
▁fighting	-3460
anes	-3461
tered	-3462
icted	-3463
irection	-3464
▁disapp	-3465
oly	-3466
▁Care	-3467
▁Congress	-3468
▁centre	-3469
▁want	-3470
▁Manchester	-3471
▁III	-3472
▁Rail	-3473
▁artic	-3474
▁kind	-3475
▁performances	-3476
atre	-3477
bridge	-3478
▁male	-3479
▁closed	-3480
▁names	-3481
▁enj	-3482
▁Cath	-3483
▁qual	-3484
▁contem	-3485
▁education	-3486
▁Acad	-3487
▁recover	-3488
aped	-3489
▁traditional	-3490
ita	-3491
▁earned	-3492
▁ability	-3493
▁African	-3494
isher	-3495
▁attention	-3496
▁Er	-3497
▁newsp	-3498
▁Step	-3499
reme	-3500
▁1940	-3501
▁unit	-3502
▁Fore	-3503
▁walk	-3504
ruck	-3505
▁Mass	-3506
▁Cross	-3507
▁unable	-3508
utch	-3509
▁abandon	-3510
▁covered	-3511
▁Ann	-3512
▁Tim	-3513
▁Del	-3514
▁horse	-3515
▁max	-3516
▁Games	-3517
acher	-3518
▁Major	-3519
echan	-3520
ounts	-3521
▁box	-3522
▁defeat	-3523
▁sister	-3524
▁declared	-3525
▁Rev	-3526
ples	-3527
▁blood	-3528
olf	-3529
▁meant	-3530
▁neigh	-3531
▁energy	-3532
▁ris	-3533
▁records	-3534
oes	-3535
▁Haw	-3536
▁Several	-3537
▁elected	-3538
▁compl	-3539
▁Russian	-3540
▁architect	-3541
▁middle	-3542
▁kilomet	-3543
▁refused	-3544
▁giving	-3545
aine	-3546
▁More	-3547
▁coach	-3548
▁highly	-3549
▁question	-3550
rical	-3551
▁serious	-3552
irt	-3553
▁commander	-3554
oses	-3555
▁rat	-3556
▁Sk	-3557
▁traff	-3558
ening	-3559
odies	-3560
▁Wales	-3561
▁letter	-3562
rem	-3563
▁account	-3564
▁har	-3565
▁nuc	-3566
bed	-3567
▁matches	-3568
ait	-3569
use	-3570
ellow	-3571
▁chief	-3572
▁i	-3573
▁Cons	-3574
▁mention	-3575
ada	-3576
▁Rh	-3577
quar	-3578
▁schools	-3579
lor	-3580
ervation	-3581
▁wing	-3582
icient	-3583
▁necess	-3584
▁1992	-3585
▁rein	-3586
▁rapid	-3587
▁179	-3588
▁Long	-3589
house	-3590
▁levels	-3591
▁constructed	-3592
▁Arch	-3593
▁cyclone	-3594
▁Empire	-3595
▁practice	-3596
ims	-3597
▁Kenn	-3598
▁Dou	-3599
ping	-3600
▁dra	-3601
▁Time	-3602
▁notes	-3603
▁Dar	-3604
▁Sum	-3605
ibly	-3606
▁constit	-3607
▁edition	-3608
▁produce	-3609
▁separate	-3610
ieut	-3611
▁mor	-3612
ishop	-3613
▁Harrison	-3614
▁movie	-3615
▁annual	-3616
▁plat	-3617
ogue	-3618
▁document	-3619
eck	-3620
▁pick	-3621
ounded	-3622
vention	-3623
▁Bost	-3624
▁effort	-3625
▁attended	-3626
antasy	-3627
▁du	-3628
▁Fer	-3629
▁nearby	-3630
▁combat	-3631
▁55	-3632
▁hot	-3633
▁touch	-3634
ansion	-3635
▁1930	-3636
▁Arab	-3637
▁text	-3638
▁pair	-3639
▁metres	-3640
▁Fox	-3641
icated	-3642
▁electric	-3643
▁Southern	-3644
▁continue	-3645
▁directly	-3646
▁accepted	-3647
ether	-3648
▁ge	-3649
MS	-3650
▁science	-3651
▁Wall	-3652
▁Hel	-3653
▁cle	-3654
ady	-3655
ares	-3656
▁ending	-3657
▁rare	-3658
▁environment	-3659
▁prep	-3660
aph	-3661
▁Arm	-3662
very	-3663
▁seem	-3664
▁cerem	-3665
ining	-3666
▁39	-3667
▁vocals	-3668
▁Tri	-3669
▁theme	-3670
yal	-3671
▁41	-3672
▁stating	-3673
▁dut	-3674
▁Test	-3675
track	-3676
▁42	-3677
itiz	-3678
▁tried	-3679
shire	-3680
utions	-3681
▁1991	-3682
▁recomm	-3683
▁1993	-3684
▁Chart	-3685
▁efforts	-3686
▁tur	-3687
▁meaning	-3688
gl	-3689
▁positions	-3690
ector	-3691
▁reduced	-3692
▁Team	-3693
▁univers	-3694
▁dom	-3695
road	-3696
▁sevent	-3697
▁enjoy	-3698
▁legal	-3699
▁nation	-3700
▁means	-3701
▁controvers	-3702
▁Minister	-3703
▁presented	-3704
▁So	-3705
▁Sur	-3706
vement	-3707
wide	-3708
▁college	-3709
ols	-3710
▁hundred	-3711
▁+	-3712
emorial	-3713
ingu	-3714
▁variety	-3715
lict	-3716
▁Department	-3717
icip	-3718
alle	-3719
ieutenant	-3720
▁direction	-3721
▁Vietn	-3722
eway	-3723
▁incorpor	-3724
ih	-3725
ya	-3726
▁repe	-3727
onic	-3728
▁showed	-3729
▁Hung	-3730
▁drum	-3731
▁twenty	-3732
▁asp	-3733
illed	-3734
cle	-3735
▁48	-3736
▁advance	-3737
like	-3738
▁concert	-3739
oper	-3740
▁Ott	-3741
▁settle	-3742
▁portray	-3743
▁distinct	-3744
▁Sar	-3745
▁bank	-3746
▁Captain	-3747
▁watch	-3748
awn	-3749
▁lear	-3750
▁400	-3751
ien	-3752
▁reject	-3753
▁Dun	-3754
ulations	-3755
fect	-3756
▁Matt	-3757
▁inches	-3758
▁responsible	-3759
▁Leg	-3760
▁Three	-3761
▁begins	-3762
ette	-3763
▁words	-3764
▁quality	-3765
▁yard	-3766
▁Sol	-3767
▁Boston	-3768
▁182	-3769
▁arrest	-3770
▁Records	-3771
▁Stone	-3772
▁culture	-3773
band	-3774
▁Their	-3775
▁forms	-3776
▁economic	-3777
▁Class	-3778
▁inside	-3779
▁cust	-3780
▁function	-3781
▁purs	-3782
irit	-3783
stone	-3784
ceeded	-3785
stitute	-3786
▁Hurricane	-3787
osen	-3788
▁conducted	-3789
▁dism	-3790
▁Democr	-3791
▁resulting	-3792
rier	-3793
▁houses	-3794
▁writers	-3795
la	-3796
▁Service	-3797
▁Jer	-3798
▁theory	-3799
▁presence	-3800
bre	-3801
▁Williams	-3802
osaur	-3803
▁uses	-3804
▁marked	-3805
▁specific	-3806
▁championship	-3807
wh	-3808
▁Oxford	-3809
light	-3810
▁fast	-3811
▁symb	-3812
▁greater	-3813
▁managed	-3814
▁candid	-3815
▁Fin	-3816
▁Foot	-3817
ecting	-3818
▁Bat	-3819
peror	-3820
▁dropped	-3821
▁vocal	-3822
▁Post	-3823
▁sides	-3824
▁impact	-3825
▁cases	-3826
▁Book	-3827
▁marriage	-3828
▁observed	-3829
▁Lit	-3830
▁Chris	-3831
umber	-3832
ylv	-3833
▁tourn	-3834
▁things	-3835
▁kept	-3836
gs	-3837
ils	-3838
▁continues	-3839
writ	-3840
▁47	-3841
▁Bu	-3842
▁181	-3843
▁thick	-3844
cend	-3845
▁Bob	-3846
stein	-3847
▁amount	-3848
▁potential	-3849
▁display	-3850
▁ple	-3851
▁transferred	-3852
itan	-3853
▁Win	-3854
imate	-3855
▁Lu	-3856
ala	-3857
za	-3858
▁founded	-3859
▁morning	-3860
▁schol	-3861
▁News	-3862
▁Boy	-3863
rugg	-3864
▁Stephen	-3865
▁Saint	-3866
isation	-3867
▁lif	-3868
▁1944	-3869
▁source	-3870
▁attempts	-3871
▁demonst	-3872
▁collection	-3873
▁opt	-3874
astic	-3875
▁Four	-3876
▁traffic	-3877
mas	-3878
▁enemy	-3879
▁your	-3880
▁allowing	-3881
kn	-3882
thlet	-3883
illery	-3884
▁royal	-3885
een	-3886
▁starting	-3887
▁Latin	-3888
▁Secret	-3889
▁compos	-3890
▁actions	-3891
▁becomes	-3892
arent	-3893
▁peaked	-3894
▁exhib	-3895
▁encoun	-3896
▁Tre	-3897
force	-3898
▁parents	-3899
lection	-3900
▁Like	-3901
▁Greek	-3902
▁Ver	-3903
▁Ire	-3904
▁Madonna	-3905
▁cas	-3906
▁spl	-3907
▁burn	-3908
▁65	-3909
▁multiple	-3910
▁perm	-3911
▁mechan	-3912
▁Def	-3913
▁concluded	-3914
▁Form	-3915
▁Stan	-3916
▁raid	-3917
▁Joseph	-3918
▁log	-3919
▁behav	-3920
▁Sil	-3921
▁Dis	-3922
▁Creek	-3923
▁train	-3924
▁ded	-3925
▁suppl	-3926
under	-3927
▁foreign	-3928
▁respond	-3929
▁collabor	-3930
▁rating	-3931
▁Ireland	-3932
▁contrast	-3933
▁innings	-3934
▁era	-3935
▁property	-3936
▁ess	-3937
▁1942	-3938
▁write	-3939
▁Scotland	-3940
▁portion	-3941
▁Parliament	-3942
▁subst	-3943
▁weaken	-3944
▁relatively	-3945
▁opportun	-3946
▁companies	-3947
▁beat	-3948
▁mess	-3949
▁Jeff	-3950
▁owned	-3951
▁acting	-3952
▁independent	-3953
ancy	-3954
▁tend	-3955
▁Mic	-3956
▁Columb	-3957
▁financial	-3958
▁wall	-3959
▁wor	-3960
▁strugg	-3961
▁actually	-3962
▁43	-3963
▁44	-3964
▁primarily	-3965
▁Produ	-3966
▁scoring	-3967
eds	-3968
▁stories	-3969
▁premi	-3970
▁journal	-3971
iance	-3972
udd	-3973
sych	-3974
thel	-3975
▁Lee	-3976
▁square	-3977
rel	-3978
▁chap	-3979
thur	-3980
▁interp	-3981
▁viewers	-3982
▁Pan	-3983
▁Norm	-3984
anna	-3985
▁piece	-3986
▁Bridge	-3987
▁figure	-3988
uge	-3989
▁batter	-3990
▁metal	-3991
▁powerful	-3992
▁policy	-3993
▁lot	-3994
▁dise	-3995
▁struck	-3996
▁Nin	-3997
▁Hor	-3998
▁vo	-3999
illa	-4000
▁rule	-4001
▁1945	-4002
▁wild	-4003
▁captain	-4004
▁situation	-4005
adel	-4006
▁castle	-4007
▁Because	-4008
▁Society	-4009
▁slightly	-4010
▁Light	-4011
▁sought	-4012
ellig	-4013
▁border	-4014
▁ultimately	-4015
▁Go	-4016
▁Brigade	-4017
bon	-4018
oration	-4019
rown	-4020
▁spot	-4021
▁target	-4022
▁distance	-4023
annel	-4024
▁Spec	-4025
▁share	-4026
▁hero	-4027
▁plays	-4028
▁Series	-4029
▁selling	-4030
▁Museum	-4031
▁onto	-4032
▁Admiral	-4033
▁maximum	-4034
iated	-4035
▁bound	-4036
▁conver	-4037
gian	-4038
▁strength	-4039
▁scale	-4040
ero	-4041
ressive	-4042
▁cho	-4043
chest	-4044
ented	-4045
▁Van	-4046
▁path	-4047
▁today	-4048
▁Battalion	-4049
ees	-4050
▁Os	-4051
▁Before	-4052
▁sout	-4053
▁Carl	-4054
▁news	-4055
▁Little	-4056
orses	-4057
▁rough	-4058
▁titled	-4059
▁Academy	-4060
▁featuring	-4061
while	-4062
▁Tw	-4063
ricket	-4064
▁Pop	-4065
ym	-4066
▁boy	-4067
▁completely	-4068
▁Committee	-4069
▁officials	-4070
▁Commission	-4071
▁1920	-4072
▁thous	-4073
▁Histor	-4074
▁paid	-4075
▁pilot	-4076
▁divided	-4077
inem	-4078
▁Entertain	-4079
▁wear	-4080
perial	-4081
aven	-4082
▁46	-4083
▁Tropical	-4084
▁sources	-4085
▁1941	-4086
▁emot	-4087
▁Infantry	-4088
▁reform	-4089
▁BBC	-4090
▁corn	-4091
▁webs	-4092
▁ir	-4093
ersey	-4094
▁charge	-4095
▁greatest	-4096
▁say	-4097
▁Homer	-4098
▁Mod	-4099
▁Life	-4100
▁gar	-4101
ship	-4102
▁crow	-4103
▁Gil	-4104
istry	-4105
▁Line	-4106
istics	-4107
▁animals	-4108
▁resist	-4109
▁northeast	-4110
▁suc	-4111
▁Rom	-4112
right	-4113
gypt	-4114
quarters	-4115
▁influenced	-4116
acts	-4117
▁systems	-4118
▁hus	-4119
rupt	-4120
▁subsequent	-4121
▁mainly	-4122
▁torped	-4123
mond	-4124
▁defend	-4125
▁Vol	-4126
▁federal	-4127
▁NH	-4128
▁ox	-4129
tation	-4130
▁activity	-4131
▁mind	-4132
▁recent	-4133
▁Conf	-4134
▁society	-4135
▁actor	-4136
▁Youn	-4137
▁Entertainment	-4138
onn	-4139
load	-4140
▁wick	-4141
▁older	-4142
▁64	-4143
▁Wind	-4144
ota	-4145
▁Americans	-4146
mark	-4147
▁artists	-4148
ips	-4149
▁winter	-4150
▁adj	-4151
▁search	-4152
▁northwest	-4153
▁mem	-4154
▁Orig	-4155
▁designated	-4156
▁Paris	-4157
▁broke	-4158
▁reaching	-4159
▁Hard	-4160
▁calling	-4161
▁mel	-4162
▁vess	-4163
▁conflict	-4164
pe	-4165
▁resc	-4166
▁birds	-4167
▁Sub	-4168
▁magn	-4169
▁Good	-4170
▁problem	-4171
▁background	-4172
rative	-4173
▁Ill	-4174
▁Add	-4175
▁Gall	-4176
▁county	-4177
rid	-4178
ube	-4179
▁Catholic	-4180
och	-4181
▁Chief	-4182
▁Che	-4183
▁sense	-4184
▁52	-4185
▁inch	-4186
▁Egypt	-4187
▁peace	-4188
▁sust	-4189
▁injury	-4190
▁Bart	-4191
▁Polish	-4192
TV	-4193
▁Tem	-4194
olved	-4195
▁150	-4196
aud	-4197
▁Fre	-4198
▁citiz	-4199
▁dance	-4200
▁albums	-4201
▁blue	-4202
▁cities	-4203
▁Ell	-4204
▁exped	-4205
aling	-4206
iring	-4207
▁Bus	-4208
▁Italy	-4209
▁alongside	-4210
▁widely	-4211
▁Den	-4212
▁Northern	-4213
▁says	-4214
▁studies	-4215
▁Oh	-4216
▁Dutch	-4217
▁Regiment	-4218
▁sixth	-4219
▁waters	-4220
▁negot	-4221
▁territory	-4222
▁soundtrack	-4223
▁weather	-4224
▁transl	-4225
▁content	-4226
oured	-4227
▁encour	-4228
▁sn	-4229
▁Prince	-4230
▁seg	-4231
inet	-4232
ysis	-4233
▁true	-4234
▁favour	-4235
▁passing	-4236
▁Di	-4237
▁combined	-4238
▁Gard	-4239
▁sexual	-4240
▁expressed	-4241
aga	-4242
▁Upon	-4243
▁thir	-4244
ampion	-4245
▁Commun	-4246
▁explained	-4247
▁Max	-4248
▁Through	-4249
▁naval	-4250
▁Carolina	-4251
▁coming	-4252
▁promoted	-4253
ategory	-4254
▁reception	-4255
▁supp	-4256
▁Luc	-4257
▁Work	-4258
▁platform	-4259
▁versions	-4260
▁nominated	-4261
▁serve	-4262
▁walls	-4263
▁gas	-4264
▁argued	-4265
▁officially	-4266
▁1989	-4267
town	-4268
▁Dam	-4269
ication	-4270
▁prominent	-4271
▁identified	-4272
▁Alb	-4273
▁concent	-4274
ini	-4275
▁farm	-4276
▁Fred	-4277
azz	-4278
▁Corn	-4279
bur	-4280
▁seek	-4281
▁shortly	-4282
▁iron	-4283
▁alone	-4284
▁Aut	-4285
▁causing	-4286
▁confirmed	-4287
anta	-4288
inson	-4289
▁physical	-4290
▁results	-4291
iny	-4292
▁jun	-4293
▁offer	-4294
▁Rog	-4295
▁weapons	-4296
▁Ca	-4297
▁hun	-4298
▁trial	-4299
▁instrument	-4300
▁cert	-4301
▁Valley	-4302
▁spread	-4303
▁heavily	-4304
AF	-4305
▁pun	-4306
lines	-4307
▁1943	-4308
▁Bond	-4309
▁chem	-4310
▁proved	-4311
▁require	-4312
▁growth	-4313
ighth	-4314
▁habit	-4315
▁hands	-4316
▁stra	-4317
ran	-4318
▁rang	-4319
omy	-4320
▁51	-4321
▁doll	-4322
rong	-4323
▁aired	-4324
▁represented	-4325
▁Way	-4326
▁Show	-4327
eption	-4328
▁stone	-4329
▁rainfall	-4330
▁Sat	-4331
▁poet	-4332
▁apparent	-4333
amm	-4334
▁Card	-4335
▁doub	-4336
▁drug	-4337
▁hospital	-4338
▁Duke	-4339
▁tun	-4340
▁Colon	-4341
▁Bell	-4342
▁Direct	-4343
▁laws	-4344
▁pict	-4345
▁seconds	-4346
eed	-4347
▁Irish	-4348
▁avoid	-4349
▁Jones	-4350
▁tournament	-4351
▁Charl	-4352
▁Holly	-4353
ylvania	-4354
iced	-4355
▁Wild	-4356
iano	-4357
▁Land	-4358
▁debuted	-4359
▁Live	-4360
▁instit	-4361
▁85	-4362
▁figures	-4363
▁kg	-4364
▁pan	-4365
known	-4366
▁occasion	-4367
▁eas	-4368
▁returning	-4369
▁residents	-4370
urban	-4371
▁Football	-4372
▁criticized	-4373
▁capture	-4374
▁Civil	-4375
▁equipment	-4376
▁student	-4377
▁bit	-4378
acity	-4379
▁pieces	-4380
ibrary	-4381
▁tells	-4382
▁gained	-4383
▁invasion	-4384
embly	-4385
▁ring	-4386
▁trees	-4387
▁activities	-4388
▁appearances	-4389
AS	-4390
▁image	-4391
▁Though	-4392
agn	-4393
▁Eliz	-4394
▁Swed	-4395
▁guest	-4396
edd	-4397
rate	-4398
ports	-4399
▁husband	-4400
▁affected	-4401
▁propos	-4402
▁contemporary	-4403
▁toward	-4404
▁Tra	-4405
abeth	-4406
▁doing	-4407
ners	-4408
▁Guard	-4409
▁600	-4410
▁maintained	-4411
osa	-4412
▁Jul	-4413
ifying	-4414
▁Tod	-4415
▁hyd	-4416
▁seasons	-4417
▁sens	-4418
▁exec	-4419
▁sche	-4420
▁earth	-4421
▁risk	-4422
essions	-4423
ables	-4424
▁ahead	-4425
lers	-4426
hedul	-4427
▁pack	-4428
▁termin	-4429
▁weight	-4430
▁green	-4431
bit	-4432
▁Ry	-4433
otyp	-4434
▁Christmas	-4435
▁Ram	-4436
▁setting	-4437
ocked	-4438
▁Top	-4439
▁wit	-4440
ledge	-4441
▁fired	-4442
▁Avenue	-4443
▁Storm	-4444
▁senior	-4445
▁Week	-4446
▁pal	-4447
resp	-4448
▁remark	-4449
▁emph	-4450
▁load	-4451
▁surpris	-4452
▁ice	-4453
▁murder	-4454
▁pattern	-4455
▁organization	-4456
aly	-4457
▁Beat	-4458
▁step	-4459
▁Kar	-4460
▁prepar	-4461
appen	-4462
▁leaders	-4463
▁typically	-4464
▁paper	-4465
▁Pers	-4466
▁Mat	-4467
▁Head	-4468
▁attract	-4469
▁Ty	-4470
▁Jud	-4471
ushed	-4472
▁Men	-4473
eller	-4474
▁Croat	-4475
amber	-4476
▁floor	-4477
▁Wilson	-4478
min	-4479
▁dyn	-4480
▁native	-4481
▁consisted	-4482
ayer	-4483
▁planet	-4484
▁reference	-4485
▁singles	-4486
▁worldwide	-4487
▁ast	-4488
▁bul	-4489
ilies	-4490
▁surre	-4491
ager	-4492
▁executive	-4493
▁fully	-4494
▁governor	-4495
▁frequently	-4496
▁stre	-4497
▁horses	-4498
▁attrib	-4499
▁artillery	-4500
▁Fleet	-4501
▁stations	-4502
▁degree	-4503
▁bal	-4504
anger	-4505
▁send	-4506
▁formation	-4507
▁Far	-4508
▁couple	-4509
▁editor	-4510
▁End	-4511
ico	-4512
▁matter	-4513
▁Victoria	-4514
▁Young	-4515
ote	-4516
▁Short	-4517
pool	-4518
▁Girl	-4519
ruit	-4520
▁value	-4521
▁1987	-4522
▁Ly	-4523
▁Mean	-4524
▁contained	-4525
▁treatment	-4526
illy	-4527
anning	-4528
uous	-4529
▁rid	-4530
▁inte	-4531
▁Middle	-4532
ockey	-4533
▁weak	-4534
▁reports	-4535
▁vehicles	-4536
ordin	-4537
▁management	-4538
▁53	-4539
▁laid	-4540
▁Penns	-4541
hew	-4542
▁Ocean	-4543
▁Operation	-4544
▁god	-4545
ivity	-4546
▁phil	-4547
▁crowd	-4548
itable	-4549
▁54	-4550
▁ut	-4551
elve	-4552
▁schedul	-4553
▁Governor	-4554
▁therefore	-4555
▁operated	-4556
▁Writ	-4557
onents	-4558
▁honor	-4559
▁agreement	-4560
BA	-4561
emic	-4562
▁displ	-4563
▁spirit	-4564
▁cannot	-4565
▁chosen	-4566
▁Background	-4567
▁follows	-4568
velopment	-4569
▁accident	-4570
▁reign	-4571
▁claims	-4572
▁sequence	-4573
▁historian	-4574
▁Dev	-4575
▁visited	-4576
▁agg	-4577
▁grew	-4578
antly	-4579
▁comes	-4580
▁rom	-4581
▁Liber	-4582
gu	-4583
▁draft	-4584
▁flying	-4585
▁element	-4586
▁label	-4587
▁machine	-4588
ufact	-4589
ety	-4590
▁cell	-4591
▁serving	-4592
▁eth	-4593
▁here	-4594
▁experiment	-4595
cel	-4596
uls	-4597
zer	-4598
▁split	-4599
▁Gal	-4600
▁swe	-4601
▁supply	-4602
▁extr	-4603
▁master	-4604
▁manufact	-4605
anda	-4606
▁Bey	-4607
▁1988	-4608
▁negative	-4609
▁Hal	-4610
▁Hy	-4611
▁66	-4612
▁Jon	-4613
▁Each	-4614
▁fuel	-4615
rect	-4616
▁feed	-4617
▁benef	-4618
▁university	-4619
izes	-4620
▁orders	-4621
▁trying	-4622
▁participated	-4623
▁Fantasy	-4624
▁Pen	-4625
▁prin	-4626
▁Jac	-4627
▁compar	-4628
add	-4629
imens	-4630
▁56	-4631
ental	-4632
▁adopted	-4633
▁medical	-4634
ias	-4635
▁emphas	-4636
▁Government	-4637
▁fiction	-4638
▁177	-4639
▁mis	-4640
▁bass	-4641
▁website	-4642
▁surrounding	-4643
▁speech	-4644
more	-4645
▁District	-4646
▁condition	-4647
akers	-4648
▁brown	-4649
▁defense	-4650
▁individuals	-4651
▁district	-4652
aby	-4653
▁Kr	-4654
▁Ep	-4655
aved	-4656
▁Night	-4657
▁bud	-4658
▁Jenn	-4659
antine	-4660
▁lives	-4661
resh	-4662
▁accompan	-4663
▁Lew	-4664
uct	-4665
▁sle	-4666
▁adapt	-4667
▁homes	-4668
▁coal	-4669
▁producers	-4670
▁extra	-4671
TC	-4672
▁Exp	-4673
▁simply	-4674
▁Fam	-4675
andy	-4676
fully	-4677
▁measure	-4678
▁unknown	-4679
▁opposed	-4680
▁inh	-4681
▁paralle	-4682
▁abandoned	-4683
eld	-4684
▁arms	-4685
▁Senate	-4686
▁escape	-4687
ucky	-4688
▁entr	-4689
▁leaves	-4690
▁Olympic	-4691
▁passes	-4692
iro	-4693
▁growing	-4694
rael	-4695
▁System	-4696
▁Reception	-4697
▁chose	-4698
utation	-4699
▁Home	-4700
▁moment	-4701
▁Studios	-4702
▁95	-4703
ricult	-4704
▁spect	-4705
▁Us	-4706
▁herself	-4707
▁capacity	-4708
▁consecutive	-4709
▁shell	-4710
▁losing	-4711
stitution	-4712
▁Ha	-4713
▁1986	-4714
▁Inst	-4715
▁Broad	-4716
▁Marsh	-4717
aming	-4718
ancing	-4719
lement	-4720
isco	-4721
▁Eastern	-4722
▁filming	-4723
cer	-4724
acement	-4725
rane	-4726
▁diam	-4727
▁Cat	-4728
▁advant	-4729
▁Pennsylvania	-4730
▁fair	-4731
▁camer	-4732
▁Further	-4733
▁authority	-4734
▁normal	-4735
▁twice	-4736
agan	-4737
▁Key	-4738
▁unf	-4739
▁newspaper	-4740
▁Ul	-4741
▁Elizabeth	-4742
enge	-4743
then	-4744
▁Burn	-4745
▁guard	-4746
▁disease	-4747
▁basis	-4748
▁Castle	-4749
▁Spain	-4750
▁newly	-4751
▁perman	-4752
▁Fe	-4753
▁Of	-4754
orship	-4755
▁tower	-4756
▁Daniel	-4757
▁launch	-4758
▁faced	-4759
▁wounded	-4760
▁bey	-4761
omers	-4762
▁opin	-4763
▁advanced	-4764
▁incident	-4765
ola	-4766
▁Coast	-4767
▁achieved	-4768
▁expansion	-4769
orter	-4770
▁organized	-4771
tar	-4772
▁possibly	-4773
▁severe	-4774
etts	-4775
▁Ray	-4776
▁boat	-4777
▁heard	-4778
▁beyond	-4779
▁spring	-4780
▁Mike	-4781
▁extensive	-4782
▁nothing	-4783
▁creating	-4784
▁Elect	-4785
▁Pu	-4786
▁fan	-4787
▁evac	-4788
▁straight	-4789
▁Clark	-4790
▁solo	-4791
▁Public	-4792
▁explos	-4793
▁deploy	-4794
▁Det	-4795
▁contest	-4796
gar	-4797
apers	-4798
▁historical	-4799
estic	-4800
▁ends	-4801
▁glob	-4802
▁color	-4803
▁failure	-4804
▁killing	-4805
▁enter	-4806
mosp	-4807
▁comedy	-4808
▁rival	-4809
▁extend	-4810
▁narrow	-4811
▁billion	-4812
▁council	-4813
▁regarded	-4814
▁Blue	-4815
▁fellow	-4816
▁squadron	-4817
▁CD	-4818
▁ideas	-4819
▁criticism	-4820
▁Israel	-4821
imal	-4822
▁Album	-4823
▁administration	-4824
▁Prot	-4825
▁defin	-4826
▁Field	-4827
▁challeng	-4828
▁opposition	-4829
▁elev	-4830
▁actors	-4831
▁Rod	-4832
gend	-4833
▁sail	-4834
avalry	-4835
▁57	-4836
▁Hum	-4837
▁deliver	-4838
▁mile	-4839
▁happen	-4840
▁Festival	-4841
▁contact	-4842
▁acquired	-4843
▁Production	-4844
ić	-4845
▁1985	-4846
▁Cambridge	-4847
▁WW	-4848
appy	-4849
ourney	-4850
▁briefly	-4851
ura	-4852
▁nuclear	-4853
▁centuries	-4854
▁Islands	-4855
▁task	-4856
▁Miller	-4857
oln	-4858
▁Harry	-4859
▁granted	-4860
▁retired	-4861
▁railway	-4862
▁families	-4863
▁sets	-4864
▁ancient	-4865
born	-4866
▁Ret	-4867
▁personnel	-4868
▁applic	-4869
▁Meanwhile	-4870
ev	-4871
▁believe	-4872
onent	-4873
▁Scottish	-4874
▁imag	-4875
▁Sound	-4876
▁plants	-4877
isters	-4878
▁Albert	-4879
▁Tay	-4880
▁sports	-4881
rog	-4882
▁column	-4883
▁liber	-4884
▁express	-4885
▁silver	-4886
▁filmed	-4887
▁1939	-4888
ographer	-4889
▁authorities	-4890
▁receive	-4891
▁describes	-4892
▁eye	-4893
▁prompt	-4894
▁Brook	-4895
▁roles	-4896
▁table	-4897
▁famous	-4898
▁62	-4899
▁fought	-4900
▁kilometres	-4901
▁vari	-4902
▁psych	-4903
▁MD	-4904
▁120	-4905
▁progress	-4906
haps	-4907
▁Hit	-4908
▁178	-4909
osh	-4910
pass	-4911
▁chair	-4912
ifications	-4913
▁necessary	-4914
▁choice	-4915
▁places	-4916
▁appl	-4917
▁rear	-4918
iments	-4919
▁Georg	-4920
▁Die	-4921
fort	-4922
▁lands	-4923
▁Are	-4924
uccess	-4925
▁armed	-4926
▁Allied	-4927
▁illust	-4928
▁800	-4929
▁Lo	-4930
ta	-4931
▁suggests	-4932
▁97	-4933
▁Mul	-4934
hens	-4935
▁Also	-4936
▁hall	-4937
▁roads	-4938
▁Institute	-4939
ocks	-4940
▁Hay	-4941
ocated	-4942
▁dismiss	-4943
war	-4944
▁bat	-4945
án	-4946
acks	-4947
adelph	-4948
▁Andrew	-4949
▁Due	-4950
▁Bru	-4951
▁rejected	-4952
▁learn	-4953
▁caught	-4954
▁Addition	-4955
▁mountain	-4956
oles	-4957
▁kick	-4958
▁Cy	-4959
▁Han	-4960
▁pet	-4961
▁tim	-4962
lusion	-4963
▁Child	-4964
mit	-4965
mann	-4966
▁Mir	-4967
ima	-4968
uate	-4969
▁repeated	-4970
▁Philadelph	-4971
▁successfully	-4972
amin	-4973
▁row	-4974
▁vote	-4975
▁drama	-4976
▁crossing	-4977
▁graph	-4978
▁contain	-4979
▁flooding	-4980
▁Pot	-4981
▁dial	-4982
▁Among	-4983
▁1968	-4984
▁types	-4985
atures	-4986
oted	-4987
rain	-4988
▁Wars	-4989
▁commonly	-4990
▁Joe	-4991
▁Common	-4992
▁Square	-4993
▁headquarters	-4994
▁data	-4995
▁strike	-4996
isf	-4997
▁improved	-4998
▁What	-4999
▁poll	-5000
▁turns	-5001
▁tree	-5002
▁expedition	-5003
ef	-5004
uting	-5005
▁Water	-5006
▁la	-5007
▁mob	-5008
▁drive	-5009
▁commissioned	-5010
▁roof	-5011
kin	-5012
▁purpose	-5013
▁Bas	-5014
▁Var	-5015
▁Dark	-5016
▁Philadelphia	-5017
usc	-5018
▁arrival	-5019
▁casual	-5020
awa	-5021
▁unp	-5022
▁1984	-5023
▁landing	-5024
▁HMS	-5025
▁didn	-5026
▁offensive	-5027
▁effective	-5028
▁sac	-5029
▁height	-5030
▁eg	-5031
▁Lind	-5032
stream	-5033
▁islands	-5034
▁ceremony	-5035
▁broken	-5036
▁bott	-5037
set	-5038
▁Mov	-5039
▁seventh	-5040
▁citizens	-5041
▁creation	-5042
▁Barb	-5043
▁76	-5044
▁Cub	-5045
▁twelve	-5046
▁torpedo	-5047
rif	-5048
▁soft	-5049
▁interact	-5050
▁convers	-5051
▁determined	-5052
onc	-5053
pton	-5054
▁prefer	-5055
▁firm	-5056
▁Person	-5057
outs	-5058
▁decre	-5059
▁gives	-5060
▁budget	-5061
▁recently	-5062
▁Earl	-5063
▁looking	-5064
▁Walter	-5065
umes	-5066
▁article	-5067
▁chor	-5068
▁intellig	-5069
▁Rel	-5070
▁Six	-5071
▁workers	-5072
ading	-5073
▁unique	-5074
▁parallel	-5075
▁Asia	-5076
▁Shak	-5077
▁provides	-5078
▁ur	-5079
▁upgr	-5080
▁genus	-5081
▁expanded	-5082
iot	-5083
▁Even	-5084
▁fit	-5085
▁Sund	-5086
ashion	-5087
▁philos	-5088
▁household	-5089
▁99	-5090
inity	-5091
itled	-5092
alty	-5093
▁drop	-5094
▁Liver	-5095
▁Never	-5096
▁entirely	-5097
▁facilities	-5098
▁awards	-5099
▁Gulf	-5100
▁Linc	-5101
▁defined	-5102
iana	-5103
▁Board	-5104
▁thing	-5105
▁bodies	-5106
▁Lieutenant	-5107
▁Germ	-5108
aith	-5109
▁seat	-5110
▁Revolution	-5111
Station	-5112
▁atmosp	-5113
▁Nintend	-5114
▁street	-5115
▁controlled	-5116
▁Lis	-5117
wall	-5118
▁observ	-5119
▁Nintendo	-5120
▁tail	-5121
▁shark	-5122
▁Republican	-5123
▁SS	-5124
▁reflect	-5125
▁Alexander	-5126
▁PlayStation	-5127
▁Columbia	-5128
▁existing	-5129
▁leadership	-5130
▁aim	-5131
▁mist	-5132
▁worth	-5133
▁Secretary	-5134
rich	-5135
asty	-5136
agement	-5137
▁Emperor	-5138
▁scheduled	-5139
▁interchange	-5140
▁fix	-5141
▁motor	-5142
▁dog	-5143
verse	-5144
▁Olympics	-5145
▁cultural	-5146
ulate	-5147
▁belong	-5148
ba	-5149
▁hyp	-5150
▁Lincoln	-5151
▁Es	-5152
▁excl	-5153
ii	-5154
▁Wat	-5155
▁Carey	-5156
▁Development	-5157
▁perfect	-5158
▁59	-5159
▁dedicated	-5160
▁1975	-5161
illing	-5162
▁Jersey	-5163
▁Taylor	-5164
▁titles	-5165
erc	-5166
▁Hon	-5167
▁72	-5168
▁acad	-5169
▁animal	-5170
▁singing	-5171
▁1967	-5172
▁sites	-5173
▁literature	-5174
uses	-5175
ishes	-5176
▁finds	-5177
▁Jewish	-5178
▁fat	-5179
respond	-5180
worth	-5181
▁recognized	-5182
▁Po	-5183
▁1964	-5184
▁mentioned	-5185
▁Summer	-5186
▁regions	-5187
ns	-5188
▁calls	-5189
edom	-5190
iner	-5191
▁advert	-5192
▁security	-5193
▁contributed	-5194
▁Press	-5195
▁Walk	-5196
kins	-5197
▁sport	-5198
▁advent	-5199
▁Cur	-5200
▁fish	-5201
▁61	-5202
▁analysis	-5203
▁advantage	-5204
▁Heart	-5205
▁trail	-5206
uzz	-5207
▁negoti	-5208
▁cricket	-5209
restling	-5210
iration	-5211
▁containing	-5212
ingly	-5213
▁mouth	-5214
▁NHL	-5215
▁Bush	-5216
▁themes	-5217
▁standing	-5218
lam	-5219
▁quite	-5220
▁store	-5221
▁Nel	-5222
▁Liverpool	-5223
▁58	-5224
▁Steve	-5225
▁locations	-5226
▁Sa	-5227
enger	-5228
iences	-5229
▁beaut	-5230
wick	-5231
▁stay	-5232
gn	-5233
▁intensity	-5234
sey	-5235
▁Doctor	-5236
▁younger	-5237
▁purchased	-5238
▁Lar	-5239
▁economy	-5240
▁museum	-5241
▁volume	-5242
▁1971	-5243
▁Only	-5244
▁accompanied	-5245
ipl	-5246
laim	-5247
▁sort	-5248
▁deck	-5249
▁gross	-5250
▁Bern	-5251
▁pros	-5252
▁computer	-5253
▁industrial	-5254
▁Les	-5255
▁Prov	-5256
▁strik	-5257
imet	-5258
▁unus	-5259
▁1982	-5260
▁extrem	-5261
▁Jun	-5262
▁Tro	-5263
▁Order	-5264
▁1969	-5265
▁depth	-5266
▁withdraw	-5267
▁SR	-5268
▁why	-5269
▁1979	-5270
▁consc	-5271
▁Philipp	-5272
▁protect	-5273
▁receiving	-5274
heim	-5275
▁rise	-5276
▁closely	-5277
▁dry	-5278
▁Hollywood	-5279
▁wave	-5280
iy	-5281
▁comic	-5282
▁Conn	-5283
room	-5284
▁cool	-5285
▁currently	-5286
▁gard	-5287
▁Radio	-5288
▁franch	-5289
FA	-5290
▁roll	-5291
▁viewed	-5292
▁developing	-5293
▁infantry	-5294
▁conference	-5295
gers	-5296
▁Bor	-5297
▁Rol	-5298
▁Greg	-5299
▁Lewis	-5300
▁teach	-5301
▁Brian	-5302
▁powers	-5303
▁Francisco	-5304
▁Colonel	-5305
igr	-5306
▁Att	-5307
▁Bad	-5308
▁touchdown	-5309
▁performing	-5310
▁technology	-5311
gal	-5312
rons	-5313
▁Tech	-5314
▁aid	-5315
▁merch	-5316
▁Conference	-5317
ava	-5318
▁87	-5319
▁mic	-5320
▁alle	-5321
▁sand	-5322
▁consists	-5323
▁1973	-5324
▁belief	-5325
▁correspond	-5326
ults	-5327
▁throw	-5328
▁IS	-5329
▁Tam	-5330
▁Lady	-5331
▁cold	-5332
▁defence	-5333
burgh	-5334
▁core	-5335
▁resemb	-5336
▁Special	-5337
▁orchest	-5338
ato	-5339
▁moder	-5340
eler	-5341
iday	-5342
▁charts	-5343
▁letters	-5344
▁Byz	-5345
▁1976	-5346
▁protected	-5347
▁selection	-5348
vest	-5349
▁Ash	-5350
icial	-5351
▁1972	-5352
era	-5353
▁rac	-5354
apore	-5355
ordan	-5356
▁suppor	-5357
▁Ven	-5358
▁notable	-5359
▁providing	-5360
▁enl	-5361
ologist	-5362
▁experienced	-5363
▁1914	-5364
▁southeast	-5365
▁opportunity	-5366
▁branch	-5367
▁1974	-5368
isers	-5369
▁rated	-5370
▁committee	-5371
▁wa	-5372
▁Arg	-5373
onder	-5374
▁rapidly	-5375
water	-5376
▁yellow	-5377
▁motion	-5378
▁holding	-5379
▁fresh	-5380
▁focused	-5381
▁67	-5382
onym	-5383
▁People	-5384
▁1918	-5385
▁boats	-5386
standing	-5387
▁Singapore	-5388
▁protection	-5389
▁Turn	-5390
▁finish	-5391
▁Review	-5392
▁transform	-5393
▁Grant	-5394
▁Inc	-5395
▁Bank	-5396
▁Chap	-5397
▁Mas	-5398
▁labor	-5399
▁Once	-5400
▁Bon	-5401
▁baseball	-5402
▁gameplay	-5403
▁instruct	-5404
▁supporting	-5405
▁Prime	-5406
opher	-5407
▁resistance	-5408
omew	-5409
unte	-5410
racted	-5411
▁structures	-5412
▁Fair	-5413
▁harm	-5414
▁Station	-5415
ua	-5416
▁Mot	-5417
▁hired	-5418
▁Airport	-5419
▁nob	-5420
▁engaged	-5421
▁Jean	-5422
▁strengthen	-5423
▁94	-5424
▁1983	-5425
▁drawn	-5426
▁adult	-5427
▁resident	-5428
▁secondary	-5429
▁Ohio	-5430
▁elimin	-5431
▁adap	-5432
▁actress	-5433
▁Gi	-5434
▁temperature	-5435
▁Jr	-5436
▁battalion	-5437
▁projects	-5438
▁von	-5439
▁Kong	-5440
igation	-5441
istan	-5442
inth	-5443
▁visual	-5444
▁Indust	-5445
▁rob	-5446
▁pitch	-5447
▁symbol	-5448
▁significantly	-5449
▁prote	-5450
▁shared	-5451
▁knowledge	-5452
▁Hun	-5453
▁ven	-5454
▁1965	-5455
▁views	-5456
▁roughly	-5457
▁Rome	-5458
▁urban	-5459
▁Ros	-5460
▁try	-5461
▁96	-5462
▁losses	-5463
▁eyes	-5464
▁distingu	-5465
essed	-5466
▁simple	-5467
▁southwest	-5468
▁shall	-5469
▁occupied	-5470
▁alternative	-5471
▁squad	-5472
ients	-5473
ifically	-5474
ographic	-5475
▁hair	-5476
▁edge	-5477
▁Bal	-5478
▁perhaps	-5479
▁Bul	-5480
▁popularity	-5481
▁Ball	-5482
▁cart	-5483
▁gain	-5484
▁Poland	-5485
ications	-5486
etball	-5487
▁UN	-5488
▁1966	-5489
thes	-5490
▁mut	-5491
▁1946	-5492
▁drew	-5493
▁goes	-5494
▁74	-5495
achus	-5496
▁160	-5497
▁approved	-5498
▁IV	-5499
▁piano	-5500
▁Office	-5501
BS	-5502
▁250	-5503
ora	-5504
▁Mah	-5505
▁isol	-5506
▁publication	-5507
▁Pit	-5508
leton	-5509
▁Balt	-5510
▁Anderson	-5511
▁vac	-5512
▁Braz	-5513
▁towns	-5514
yer	-5515
▁mounted	-5516
▁concer	-5517
▁fashion	-5518
▁63	-5519
▁About	-5520
▁tall	-5521
abb	-5522
▁session	-5523
▁Kentucky	-5524
▁defensive	-5525
oir	-5526
▁semi	-5527
▁Women	-5528
rin	-5529
omic	-5530
▁68	-5531
atus	-5532
▁Princ	-5533
▁regarding	-5534
▁assault	-5535
▁anything	-5536
▁Arthur	-5537
▁Between	-5538
▁allows	-5539
friend	-5540
▁bed	-5541
▁converted	-5542
▁73	-5543
▁renamed	-5544
▁Lab	-5545
▁planning	-5546
▁scholars	-5547
FL	-5548
▁enjoyed	-5549
▁exchange	-5550
▁unsuccess	-5551
osl	-5552
▁shape	-5553
osaurus	-5554
▁Russia	-5555
▁substant	-5556
▁hydro	-5557
▁Norway	-5558
▁shaped	-5559
▁Dream	-5560
▁compris	-5561
▁scientific	-5562
▁77	-5563
▁lic	-5564
▁settlement	-5565
▁Od	-5566
▁chance	-5567
▁connected	-5568
▁pul	-5569
▁1981	-5570
▁cars	-5571
▁buried	-5572
eral	-5573
▁Let	-5574
▁prepared	-5575
▁lov	-5576
▁save	-5577
▁undert	-5578
▁auth	-5579
▁adding	-5580
bell	-5581
▁reputation	-5582
▁1948	-5583
ceived	-5584
▁daily	-5585
▁introduction	-5586
oli	-5587
▁trust	-5588
▁Spring	-5589
▁cited	-5590
▁Down	-5591
▁exact	-5592
▁Command	-5593
▁lb	-5594
▁escort	-5595
▁reasons	-5596
▁witness	-5597
▁knew	-5598
▁Germans	-5599
hol	-5600
athan	-5601
▁Stew	-5602
▁weakened	-5603
▁81	-5604
iful	-5605
▁steel	-5606
▁AD	-5607
▁bor	-5608
▁overl	-5609
▁journey	-5610
igg	-5611
rence	-5612
▁equal	-5613
▁athlet	-5614
▁declined	-5615
▁Base	-5616
▁agent	-5617
▁earliest	-5618
▁Sand	-5619
▁theat	-5620
▁landfall	-5621
▁Ross	-5622
▁Daily	-5623
▁limit	-5624
▁Ra	-5625
wise	-5626
▁Kir	-5627
▁estate	-5628
▁glass	-5629
theless	-5630
▁learned	-5631
▁Jane	-5632
ources	-5633
▁nick	-5634
▁Massachus	-5635
▁Loc	-5636
inton	-5637
▁Init	-5638
▁calc	-5639
▁violence	-5640
▁Massachusetts	-5641
▁safety	-5642
▁succeeded	-5643
▁submar	-5644
▁Main	-5645
▁stream	-5646
▁Ten	-5647
▁steam	-5648
come	-5649
inking	-5650
▁depend	-5651
▁injured	-5652
BI	-5653
va	-5654
▁existence	-5655
▁increasingly	-5656
▁Jordan	-5657
▁agricult	-5658
iform	-5659
▁designs	-5660
▁Abb	-5661
othes	-5662
osis	-5663
▁nor	-5664
▁programs	-5665
iege	-5666
▁medal	-5667
▁retire	-5668
▁neut	-5669
onia	-5670
▁Simon	-5671
izations	-5672
▁description	-5673
▁Bos	-5674
▁tank	-5675
▁occas	-5676
▁descend	-5677
aks	-5678
▁ign	-5679
ilton	-5680
▁digital	-5681
▁approached	-5682
▁IG	-5683
▁Vi	-5684
▁easily	-5685
▁credited	-5686
uan	-5687
▁Ari	-5688
▁Independ	-5689
▁employed	-5690
box	-5691
▁82	-5692
▁Pict	-5693
▁improve	-5694
▁distribution	-5695
▁Vietnam	-5696
▁brothers	-5697
▁aw	-5698
▁Sus	-5699
ropol	-5700
▁seems	-5701
AR	-5702
istol	-5703
▁headed	-5704
ropri	-5705
▁watched	-5706
▁hits	-5707
▁constitution	-5708
▁poem	-5709
▁composition	-5710
emies	-5711
▁getting	-5712
▁Mos	-5713
▁Nelson	-5714
▁religion	-5715
otic	-5716
eless	-5717
▁gradually	-5718
ulpt	-5719
▁1938	-5720
insula	-5721
▁males	-5722
uration	-5723
▁responded	-5724
▁shel	-5725
▁missing	-5726
▁shooting	-5727
icks	-5728
▁1917	-5729
▁joint	-5730
▁models	-5731
▁entitled	-5732
aka	-5733
▁Row	-5734
▁1916	-5735
▁showing	-5736
▁intersection	-5737
▁rules	-5738
▁reaction	-5739
▁Railway	-5740
▁stadium	-5741
▁producing	-5742
▁Point	-5743
▁Golden	-5744
eman	-5745
▁130	-5746
▁ton	-5747
▁Democratic	-5748
ador	-5749
▁items	-5750
▁milit	-5751
oma	-5752
ivalent	-5753
▁Band	-5754
▁acres	-5755
▁virt	-5756
▁Maryland	-5757
apped	-5758
inger	-5759
▁1915	-5760
▁catch	-5761
hat	-5762
▁battery	-5763
itors	-5764
unicip	-5765
oz	-5766
▁Brazil	-5767
▁writes	-5768
ender	-5769
▁Dougl	-5770
▁Shortly	-5771
▁700	-5772
▁1956	-5773
▁Indones	-5774
▁install	-5775
▁trip	-5776
psons	-5777
▁Kim	-5778
▁sun	-5779
▁rebu	-5780
▁humans	-5781
han	-5782
time	-5783
▁Theatre	-5784
▁sustained	-5785
ads	-5786
▁rend	-5787
▁Kel	-5788
▁ago	-5789
▁Simpsons	-5790
▁Ve	-5791
▁Ron	-5792
ipe	-5793
mitted	-5794
▁applied	-5795
▁domestic	-5796
▁assistant	-5797
▁Ka	-5798
inary	-5799
▁online	-5800
▁turning	-5801
tical	-5802
▁tell	-5803
▁stopped	-5804
AT	-5805
▁evolution	-5806
▁stages	-5807
met	-5808
inois	-5809
▁opinion	-5810
▁91	-5811
roll	-5812
▁ways	-5813
▁Moore	-5814
▁lasted	-5815
▁wealth	-5816
put	-5817
▁ty	-5818
math	-5819
▁Arts	-5820
▁Tony	-5821
▁arranged	-5822
avel	-5823
▁Run	-5824
▁Gord	-5825
▁aware	-5826
▁details	-5827
▁Pass	-5828
▁Id	-5829
hus	-5830
mouth	-5831
▁exerc	-5832
▁paint	-5833
▁select	-5834
apes	-5835
eper	-5836
▁myth	-5837
▁entrance	-5838
▁consequ	-5839
▁collected	-5840
▁fict	-5841
▁Imperial	-5842
▁maintain	-5843
▁note	-5844
▁indicated	-5845
▁lem	-5846
▁youth	-5847
▁relief	-5848
▁1953	-5849
▁Songs	-5850
▁175	-5851
▁starts	-5852
▁Ottoman	-5853
▁proceed	-5854
▁MTV	-5855
▁Marc	-5856
▁Georgia	-5857
▁Av	-5858
▁emerg	-5859
▁Supreme	-5860
▁1977	-5861
bro	-5862
erto	-5863
▁arc	-5864
▁Nap	-5865
state	-5866
▁Syd	-5867
ilding	-5868
oncé	-5869
▁Pier	-5870
▁casualties	-5871
▁98	-5872
inner	-5873
▁crown	-5874
▁franchise	-5875
raham	-5876
▁69	-5877
▁objects	-5878
▁products	-5879
iger	-5880
▁Cape	-5881
▁coastal	-5882
▁storyline	-5883
▁Rem	-5884
▁Beyoncé	-5885
▁operating	-5886
iley	-5887
▁Fire	-5888
▁Prof	-5889
aire	-5890
▁sty	-5891
acter	-5892
ophy	-5893
▁Kat	-5894
▁1978	-5895
▁Korean	-5896
▁alt	-5897
▁lap	-5898
▁genre	-5899
▁heads	-5900
aked	-5901
▁soul	-5902
▁Naval	-5903
▁decade	-5904
idd	-5905
▁1958	-5906
▁Rose	-5907
▁Imp	-5908
bound	-5909
▁1962	-5910
▁gall	-5911
▁conqu	-5912
▁Gib	-5913
▁breeding	-5914
▁NBA	-5915
▁Kennedy	-5916
▁somew	-5917
▁camera	-5918
▁patrol	-5919
▁appeal	-5920
▁survived	-5921
▁deaths	-5922
▁freeway	-5923
▁impl	-5924
ira	-5925
▁71	-5926
▁rhy	-5927
▁bands	-5928
▁Mexican	-5929
▁importance	-5930
itage	-5931
▁van	-5932
▁causes	-5933
aki	-5934
▁IGN	-5935
▁filled	-5936
▁proposal	-5937
ivered	-5938
▁Univers	-5939
▁finding	-5940
▁UTC	-5941
▁exclus	-5942
poration	-5943
▁routes	-5944
ella	-5945
▁Bowl	-5946
▁Tenn	-5947
▁Color	-5948
▁decades	-5949
ader	-5950
▁females	-5951
▁Whit	-5952
ela	-5953
▁recommended	-5954
▁78	-5955
▁cry	-5956
▁threatened	-5957
▁cells	-5958
▁reduce	-5959
▁reserve	-5960
▁carrying	-5961
▁consum	-5962
▁secure	-5963
▁supplies	-5964
▁foss	-5965
▁tal	-5966
▁charged	-5967
ignment	-5968
entially	-5969
▁delivered	-5970
▁Sn	-5971
▁Engine	-5972
▁Cre	-5973
▁fear	-5974
▁frag	-5975
▁preced	-5976
▁trains	-5977
▁teacher	-5978
▁Illinois	-5979
▁painting	-5980
▁bought	-5981
▁sculpt	-5982
▁politics	-5983
▁cab	-5984
▁retained	-5985
▁promotion	-5986
▁Hart	-5987
oard	-5988
▁price	-5989
▁combination	-5990
ja	-5991
▁message	-5992
▁1947	-5993
ione	-5994
▁Cart	-5995
▁dated	-5996
▁studied	-5997
ansas	-5998
▁1963	-5999
▁cinem	-6000
▁playoff	-6001
▁blow	-6002
▁dates	-6003
▁appoint	-6004
oh	-6005
lim	-6006
western	-6007
▁Mulder	-6008
▁crossed	-6009
▁Gram	-6010
▁nest	-6011
▁Instead	-6012
ashed	-6013
▁Sher	-6014
ilation	-6015
▁internal	-6016
▁implement	-6017
▁campus	-6018
▁et	-6019
▁phase	-6020
▁adapted	-6021
▁Mu	-6022
▁tact	-6023
▁revol	-6024
ranean	-6025
▁Video	-6026
agonist	-6027
▁Forest	-6028
▁convin	-6029
▁Confeder	-6030
▁page	-6031
▁zone	-6032
ushing	-6033
▁evening	-6034
▁prisoners	-6035
▁statement	-6036
iling	-6037
▁1936	-6038
▁Disney	-6039
▁Li	-6040
▁Jan	-6041
ician	-6042
▁flat	-6043
engers	-6044
▁champion	-6045
▁permanent	-6046
▁Assembly	-6047
▁identity	-6048
▁remainder	-6049
▁department	-6050
▁offers	-6051
▁hip	-6052
▁Douglas	-6053
▁concerns	-6054
▁Serb	-6055
▁ones	-6056
▁winner	-6057
▁Memorial	-6058
bar	-6059
▁Bol	-6060
▁Sel	-6061
▁Lenn	-6062
▁Power	-6063
▁Cop	-6064
▁tra	-6065
▁extremely	-6066
ervative	-6067
▁address	-6068
▁recalled	-6069
▁typical	-6070
▁sections	-6071
▁Norwe	-6072
▁replace	-6073
▁Mountain	-6074
▁engines	-6075
▁investigation	-6076
rets	-6077
inals	-6078
▁Prem	-6079
▁Naz	-6080
▁Beach	-6081
▁kingdom	-6082
▁sufficient	-6083
ón	-6084
▁emp	-6085
▁Plot	-6086
▁invited	-6087
▁populations	-6088
lik	-6089
▁Who	-6090
▁Project	-6091
▁Director	-6092
▁everything	-6093
▁Jes	-6094
osite	-6095
▁Leon	-6096
ctions	-6097
ano	-6098
zen	-6099
▁autom	-6100
▁funds	-6101
▁Military	-6102
RA	-6103
ivan	-6104
▁Sydney	-6105
▁candidate	-6106
ensus	-6107
▁enemies	-6108
▁specifically	-6109
▁occurs	-6110
▁Jay	-6111
adow	-6112
▁ham	-6113
▁meters	-6114
▁download	-6115
agues	-6116
▁Ford	-6117
▁crime	-6118
iversary	-6119
▁vehicle	-6120
▁Critical	-6121
▁consisting	-6122
ko	-6123
▁knots	-6124
▁arrested	-6125
rec	-6126
iques	-6127
▁vent	-6128
▁noting	-6129
▁Edu	-6130
▁overse	-6131
▁installed	-6132
fl	-6133
reck	-6134
▁Prog	-6135
▁ruled	-6136
rell	-6137
istered	-6138
▁Rhodes	-6139
ati	-6140
▁Ken	-6141
erted	-6142
▁Gordon	-6143
eke	-6144
▁1919	-6145
▁acts	-6146
▁admitted	-6147
▁1961	-6148
▁Norman	-6149
▁posted	-6150
heastern	-6151
▁Singles	-6152
▁oldest	-6153
▁connection	-6154
▁mode	-6155
ici	-6156
▁Hou	-6157
▁Scully	-6158
ker	-6159
▁bottom	-6160
chers	-6161
▁acid	-6162
▁duty	-6163
ructure	-6164
▁extension	-6165
ieval	-6166
▁Fame	-6167
▁faith	-6168
issance	-6169
▁considerable	-6170
▁88	-6171
▁rural	-6172
▁tow	-6173
▁solid	-6174
▁reading	-6175
▁supposed	-6176
▁aer	-6177
▁1957	-6178
espread	-6179
▁portrayed	-6180
▁ble	-6181
hetic	-6182
▁integr	-6183
▁revolution	-6184
▁Nick	-6185
▁actual	-6186
aware	-6187
▁decor	-6188
▁owner	-6189
ras	-6190
▁remix	-6191
▁Indiana	-6192
ules	-6193
▁entry	-6194
▁manner	-6195
▁Stanley	-6196
▁ec	-6197
▁spons	-6198
▁Clinton	-6199
▁references	-6200
▁FA	-6201
▁Adam	-6202
▁93	-6203
▁stock	-6204
▁aspects	-6205
lan	-6206
achel	-6207
▁Well	-6208
▁capable	-6209
▁disturb	-6210
BN	-6211
▁principal	-6212
break	-6213
idges	-6214
▁stret	-6215
▁correct	-6216
▁Bruce	-6217
▁door	-6218
▁Throughout	-6219
▁1955	-6220
▁card	-6221
▁survey	-6222
▁settled	-6223
▁challenge	-6224
arp	-6225
▁Circ	-6226
▁classes	-6227
▁involving	-6228
▁Magazine	-6229
▁regional	-6230
▁Ur	-6231
▁fly	-6232
▁sole	-6233
▁79	-6234
▁Staff	-6235
▁fictional	-6236
▁Sunday	-6237
hedral	-6238
▁eighth	-6239
▁Nations	-6240
char	-6241
▁Ira	-6242
▁CE	-6243
▁circulation	-6244
▁circum	-6245
▁promote	-6246
▁snow	-6247
▁89	-6248
▁sell	-6249
▁volcan	-6250
▁climate	-6251
agle	-6252
▁110	-6253
▁shut	-6254
▁global	-6255
▁literary	-6256
▁interested	-6257
iller	-6258
▁poly	-6259
▁tick	-6260
▁outer	-6261
vements	-6262
▁debate	-6263
▁mort	-6264
▁Norwegian	-6265
▁controversy	-6266
▁86	-6267
▁dress	-6268
▁voted	-6269
▁1959	-6270
▁someone	-6271
▁Research	-6272
▁behavior	-6273
▁1952	-6274
▁Nether	-6275
▁independence	-6276
▁Bra	-6277
veland	-6278
▁apart	-6279
▁Hitler	-6280
▁Transport	-6281
▁equivalent	-6282
▁nomination	-6283
▁Puerto	-6284
▁opera	-6285
▁Justice	-6286
ooth	-6287
▁basic	-6288
▁charges	-6289
▁driving	-6290
▁Ob	-6291
▁wars	-6292
▁songwrit	-6293
▁certified	-6294
▁describing	-6295
▁flu	-6296
▁Anth	-6297
▁entering	-6298
▁terminus	-6299
hered	-6300
phoon	-6301
encies	-6302
▁attributed	-6303
20	-6304
▁Wy	-6305
▁cavalry	-6306
udden	-6307
▁Alan	-6308
▁Five	-6309
▁accur	-6310
▁demand	-6311
▁duties	-6312
▁parties	-6313
▁obtained	-6314
▁Vill	-6315
▁equipped	-6316
▁generation	-6317
▁subs	-6318
▁Kevin	-6319
▁colour	-6320
▁assumed	-6321
▁x	-6322
▁ha	-6323
▁mart	-6324
▁Today	-6325
▁formal	-6326
▁Beatles	-6327
ogen	-6328
▁Anton	-6329
cknow	-6330
▁1954	-6331
▁attached	-6332
▁strongly	-6333
ige	-6334
▁1933	-6335
▁dream	-6336
▁acclaim	-6337
hi	-6338
▁Additionally	-6339
▁ratings	-6340
▁FI	-6341
▁corner	-6342
▁stayed	-6343
▁regiment	-6344
ivals	-6345
▁Death	-6346
▁Media	-6347
▁clean	-6348
▁Within	-6349
▁widespread	-6350
▁Family	-6351
▁Nic	-6352
▁Maria	-6353
▁income	-6354
▁Cleveland	-6355
hr	-6356
▁Mediter	-6357
▁thousands	-6358
▁84	-6359
▁Alf	-6360
▁Bir	-6361
▁decline	-6362
▁derived	-6363
▁possibility	-6364
▁Similar	-6365
▁brigade	-6366
▁Feder	-6367
▁Howard	-6368
▁Disc	-6369
weight	-6370
▁Davis	-6371
▁Weekly	-6372
▁hosted	-6373
▁vessels	-6374
▁communities	-6375
▁pup	-6376
▁Gen	-6377
▁Low	-6378
anned	-6379
▁Lisa	-6380
▁costs	-6381
▁Age	-6382
▁Dor	-6383
▁rich	-6384
▁Temple	-6385
▁Rolling	-6386
▁Stadium	-6387
▁vary	-6388
▁slowly	-6389
▁Gilbert	-6390
▁Carter	-6391
▁Mediterranean	-6392
CC	-6393
nic	-6394
▁1937	-6395
▁Iron	-6396
▁images	-6397
▁strateg	-6398
▁missions	-6399
▁Pear	-6400
ommod	-6401
▁Space	-6402
AAF	-6403
aug	-6404
▁tom	-6405
▁dissip	-6406
▁grounds	-6407
▁warm	-6408
▁volunte	-6409
▁Gun	-6410
▁Spe	-6411
▁Hend	-6412
▁classic	-6413
▁Found	-6414
▁departure	-6415
▁parliament	-6416
▁occasionally	-6417
pet	-6418
▁Eric	-6419
▁Turk	-6420
▁176	-6421
after	-6422
▁acknow	-6423
▁recognition	-6424
rations	-6425
▁fine	-6426
orney	-6427
▁VII	-6428
▁begun	-6429
▁classified	-6430
sole	-6431
▁Int	-6432
▁interpret	-6433
▁theatre	-6434
▁ans	-6435
▁bask	-6436
▁denied	-6437
▁hang	-6438
▁Hawai	-6439
▁wearing	-6440
▁Ast	-6441
▁sounds	-6442
▁composer	-6443
▁swim	-6444
▁shore	-6445
▁Mario	-6446
▁Treat	-6447
ighters	-6448
▁speaking	-6449
idden	-6450
organ	-6451
▁hope	-6452
▁Arn	-6453
▁divers	-6454
▁committed	-6455
▁protest	-6456
▁retreat	-6457
eing	-6458
▁purchase	-6459
▁shop	-6460
PA	-6461
▁passage	-6462
aver	-6463
▁Dig	-6464
▁Prior	-6465
▁moves	-6466
aret	-6467
▁Mit	-6468
▁consp	-6469
▁Science	-6470
▁Ryan	-6471
▁valley	-6472
upt	-6473
uro	-6474
▁Tar	-6475
▁Coll	-6476
▁Philip	-6477
▁opposite	-6478
▁Budd	-6479
▁Ever	-6480
▁Rele	-6481
▁carbon	-6482
▁destruction	-6483
▁intelligence	-6484
▁1935	-6485
▁province	-6486
nings	-6487
▁accused	-6488
▁Stand	-6489
▁commanded	-6490
▁segment	-6491
bec	-6492
▁fer	-6493
▁Gill	-6494
▁Bishop	-6495
▁serves	-6496
▁discovery	-6497
▁83	-6498
icit	-6499
▁folk	-6500
▁tanks	-6501
▁sailed	-6502
▁assistance	-6503
anny	-6504
▁reinforce	-6505
▁Ak	-6506
▁Ban	-6507
▁wickets	-6508
▁Television	-6509
▁architecture	-6510
▁pure	-6511
▁inner	-6512
raf	-6513
▁ban	-6514
▁memorial	-6515
▁cong	-6516
▁incorporated	-6517
▁establishment	-6518
▁tied	-6519
▁driven	-6520
▁1949	-6521
▁sequel	-6522
onto	-6523
cation	-6524
▁bringing	-6525
▁minister	-6526
▁concerned	-6527
▁association	-6528
▁Here	-6529
▁Andy	-6530
atinum	-6531
▁Channel	-6532
ullivan	-6533
▁stands	-6534
▁returns	-6535
▁neighbor	-6536
▁Iraq	-6537
▁fruit	-6538
▁Journal	-6539
▁predecess	-6540
▁1910	-6541
▁1951	-6542
▁shif	-6543
▁thirty	-6544
otype	-6545
▁dens	-6546
▁spok	-6547
▁Around	-6548
risis	-6549
▁Simp	-6550
▁alleged	-6551
▁flo	-6552
▁Harris	-6553
iate	-6554
▁Advent	-6555
fire	-6556
▁transition	-6557
▁Open	-6558
▁Your	-6559
▁intention	-6560
▁separated	-6561
ss	-6562
▁Cab	-6563
▁Cult	-6564
▁WWE	-6565
eline	-6566
▁Marine	-6567
▁Colorado	-6568
▁mo	-6569
▁Adv	-6570
▁Recording	-6571
▁inspiration	-6572
▁reality	-6573
▁highlight	-6574
isms	-6575
▁Every	-6576
▁differences	-6577
▁Unlike	-6578
▁downtown	-6579
▁injuries	-6580
▁atmosphere	-6581
avia	-6582
▁tele	-6583
▁Freder	-6584
▁Simpson	-6585
▁difficulty	-6586
▁Constitution	-6587
li	-6588
▁Sky	-6589
▁Design	-6590
▁technical	-6591
▁cloud	-6592
▁relative	-6593
▁dipl	-6594
▁Murray	-6595
▁regularly	-6596
ogy	-6597
▁Dog	-6598
▁Rain	-6599
▁sam	-6600
▁supporters	-6601
ubb	-6602
▁commit	-6603
▁methods	-6604
ez	-6605
urches	-6606
▁Techn	-6607
▁dang	-6608
▁Korea	-6609
▁convection	-6610
anth	-6611
▁Portug	-6612
▁Plan	-6613
▁Construction	-6614
▁responsibility	-6615
lyn	-6616
▁hol	-6617
▁lake	-6618
▁ready	-6619
▁Bristol	-6620
▁obl	-6621
▁Moon	-6622
ompson	-6623
▁fields	-6624
▁exception	-6625
▁sons	-6626
▁hoped	-6627
lets	-6628
▁Der	-6629
▁restaur	-6630
ece	-6631
▁Third	-6632
▁emerged	-6633
▁warning	-6634
iva	-6635
▁demol	-6636
▁memory	-6637
▁Thompson	-6638
▁accommod	-6639
itzer	-6640
▁Horn	-6641
▁Wels	-6642
▁desire	-6643
▁superv	-6644
▁massive	-6645
▁finishing	-6646
pective	-6647
▁airport	-6648
▁Real	-6649
bourne	-6650
▁shots	-6651
▁feeling	-6652
▁Su	-6653
othing	-6654
▁neither	-6655
▁grass	-6656
▁passengers	-6657
▁rooms	-6658
▁Winter	-6659
▁funding	-6660
▁shr	-6661
▁synthes	-6662
▁unusual	-6663
lock	-6664
olph	-6665
▁Born	-6666
▁hotel	-6667
▁satisf	-6668
▁premiere	-6669
▁recovered	-6670
amese	-6671
▁properties	-6672
abil	-6673
rett	-6674
▁Toronto	-6675
▁freedom	-6676
▁picture	-6677
▁McG	-6678
▁spin	-6679
▁Jam	-6680
▁toll	-6681
▁chorus	-6682
ekend	-6683
agre	-6684
▁Now	-6685
ategy	-6686
▁Profess	-6687
▁breaking	-6688
▁otherwise	-6689
▁fled	-6690
▁Along	-6691
▁Welsh	-6692
▁materials	-6693
achment	-6694
▁Hamilton	-6695
▁lane	-6696
▁owners	-6697
▁resources	-6698
▁Modern	-6699
▁missed	-6700
▁Trib	-6701
▁quant	-6702
▁Parker	-6703
▁musicians	-6704
▁surviving	-6705
▁Gh	-6706
icate	-6707
▁persu	-6708
▁sessions	-6709
▁completion	-6710
▁Ba	-6711
pper	-6712
▁skin	-6713
▁absor	-6714
▁raise	-6715
▁wings	-6716
▁aboard	-6717
▁starred	-6718
▁Ele	-6719
▁Ho	-6720
▁Federal	-6721
▁seemed	-6722
uble	-6723
▁ash	-6724
owa	-6725
▁festival	-6726
▁attracted	-6727
lee	-6728
▁sed	-6729
▁deem	-6730
▁torn	-6731
▁rescue	-6732
▁effectively	-6733
▁Pak	-6734
▁brain	-6735
▁praise	-6736
▁Shakesp	-6737
▁convent	-6738
▁animated	-6739
ca	-6740
real	-6741
▁crop	-6742
▁worst	-6743
rad	-6744
▁Ut	-6745
hatt	-6746
▁grant	-6747
▁ancest	-6748
▁category	-6749
▁ensure	-6750
▁delayed	-6751
▁accounts	-6752
▁hal	-6753
▁ISBN	-6754
▁hill	-6755
ewhere	-6756
▁clubs	-6757
▁Centre	-6758
▁Knight	-6759
▁constant	-6760
▁requested	-6761
rix	-6762
▁PA	-6763
ygen	-6764
▁nav	-6765
▁none	-6766
▁Nob	-6767
▁Nich	-6768
▁crim	-6769
▁Roger	-6770
▁assemb	-6771
▁lat	-6772
▁Front	-6773
▁adults	-6774
▁AI	-6775
▁Buff	-6776
▁temporary	-6777
▁Alab	-6778
▁rose	-6779
▁greatly	-6780
▁Hug	-6781
▁Hell	-6782
▁armor	-6783
▁Palace	-6784
▁instruments	-6785
riers	-6786
▁deleg	-6787
▁Francis	-6788
▁somewhat	-6789
abled	-6790
▁chemical	-6791
▁ille	-6792
▁eleven	-6793
▁remn	-6794
▁replacement	-6795
▁92	-6796
▁needs	-6797
▁facility	-6798
ban	-6799
opes	-6800
▁Anne	-6801
▁forming	-6802
▁commemor	-6803
wan	-6804
aired	-6805
rophy	-6806
▁Asian	-6807
▁depict	-6808
wich	-6809
▁cul	-6810
▁teen	-6811
▁meets	-6812
▁intercept	-6813
ais	-6814
▁Marg	-6815
▁heat	-6816
▁dating	-6817
▁determine	-6818
▁presidential	-6819
uty	-6820
▁Sax	-6821
going	-6822
regon	-6823
▁Rick	-6824
▁Phill	-6825
▁Glob	-6826
▁jump	-6827
una	-6828
▁wrong	-6829
▁remember	-6830
▁Hungarian	-6831
▁Cry	-6832
▁rum	-6833
uther	-6834
▁reserv	-6835
▁Alabama	-6836
▁Matthew	-6837
▁cruiser	-6838
▁Finn	-6839
▁ment	-6840
▁prey	-6841
▁Jacob	-6842
▁romantic	-6843
▁od	-6844
spec	-6845
▁Pow	-6846
▁Conc	-6847
▁else	-6848
▁immediate	-6849
thm	-6850
▁wooden	-6851
▁authors	-6852
▁releases	-6853
eor	-6854
▁courts	-6855
▁convinced	-6856
▁interests	-6857
▁ster	-6858
▁crash	-6859
▁Tower	-6860
▁Russell	-6861
▁Thus	-6862
▁Batman	-6863
▁universe	-6864
osure	-6865
▁bond	-6866
▁anniversary	-6867
yard	-6868
▁Obs	-6869
oming	-6870
▁partn	-6871
▁involvement	-6872
▁Dick	-6873
▁Ey	-6874
borne	-6875
▁Lanc	-6876
▁flank	-6877
▁stood	-6878
▁batting	-6879
▁fighter	-6880
wealth	-6881
▁girls	-6882
▁Domin	-6883
▁union	-6884
▁temple	-6885
▁throne	-6886
▁habitat	-6887
▁penalty	-6888
▁claiming	-6889
wen	-6890
▁spoke	-6891
▁die	-6892
asure	-6893
▁tries	-6894
▁experiences	-6895
▁classification	-6896
▁McK	-6897
▁weapon	-6898
atically	-6899
▁astron	-6900
▁mamm	-6901
▁mathem	-6902
▁restored	-6903
▁Netherlands	-6904
▁legislation	-6905
▁PC	-6906
▁Roc	-6907
▁Cz	-6908
▁Carib	-6909
▁bombard	-6910
▁holds	-6911
▁recru	-6912
▁colonial	-6913
▁temperatures	-6914
▁streets	-6915
▁programme	-6916
▁loy	-6917
▁crosses	-6918
▁graphics	-6919
▁movements	-6920
▁06	-6921
▁techniques	-6922
▁Web	-6923
acent	-6924
▁languages	-6925
▁assass	-6926
▁scheme	-6927
▁Adams	-6928
▁Sports	-6929
arsh	-6930
body	-6931
igen	-6932
using	-6933
▁belt	-6934
ji	-6935
ami	-6936
▁Lennon	-6937
▁dominated	-6938
rete	-6939
▁Again	-6940
▁factors	-6941
▁superior	-6942
▁Ts	-6943
▁Argent	-6944
gets	-6945
aints	-6946
pping	-6947
teenth	-6948
▁painted	-6949
ompl	-6950
▁Bou	-6951
▁Oregon	-6952
▁Byzantine	-6953
▁Ern	-6954
▁ray	-6955
▁climb	-6956
▁interior	-6957
▁ic	-6958
▁partner	-6959
▁Vietnamese	-6960
▁difference	-6961
▁Allen	-6962
▁Medal	-6963
▁emotional	-6964
▁Nat	-6965
▁Sarah	-6966
▁surviv	-6967
▁falling	-6968
▁reviewer	-6969
▁plane	-6970
ixon	-6971
▁code	-6972
▁sale	-6973
emet	-6974
▁Pur	-6975
▁grade	-6976
ogether	-6977
▁Patrick	-6978
▁ow	-6979
▁archae	-6980
▁classical	-6981
▁dismissed	-6982
▁surrounded	-6983
ridge	-6984
▁1913	-6985
▁vide	-6986
▁distributed	-6987
▁Bry	-6988
▁bright	-6989
▁eggs	-6990
▁stead	-6991
▁seeing	-6992
nce	-6993
rig	-6994
▁1921	-6995
▁Police	-6996
▁emergency	-6997
▁Wing	-6998
▁Diego	-6999
▁races	-7000
▁historic	-7001
▁Lyn	-7002
▁gone	-7003
▁accompl	-7004
▁Commonwealth	-7005
ali	-7006
▁moderate	-7007
▁premiered	-7008
▁representing	-7009
▁DE	-7010
▁san	-7011
▁Sant	-7012
edding	-7013
▁strategy	-7014
▁Commander	-7015
uts	-7016
bean	-7017
oster	-7018
▁divisions	-7019
▁check	-7020
▁Hospital	-7021
▁favorite	-7022
▁buy	-7023
▁expect	-7024
▁appearing	-7025
▁Corporation	-7026
▁08	-7027
▁USS	-7028
▁doct	-7029
▁Hu	-7030
ossible	-7031
▁historians	-7032
▁controversial	-7033
▁Az	-7034
▁vir	-7035
▁siege	-7036
emetery	-7037
▁anyone	-7038
book	-7039
alo	-7040
obi	-7041
apping	-7042
▁Armen	-7043
hire	-7044
▁enh	-7045
▁coins	-7046
▁ninth	-7047
▁1932	-7048
▁Morgan	-7049
mun	-7050
chang	-7051
▁hear	-7052
▁cycle	-7053
▁Silver	-7054
▁fitted	-7055
▁academic	-7056
roit	-7057
ito	-7058
▁lies	-7059
▁everyone	-7060
▁garrison	-7061
▁medieval	-7062
jo	-7063
eenth	-7064
▁judge	-7065
▁Author	-7066
▁depicted	-7067
▁Nash	-7068
▁secured	-7069
imb	-7070
▁entertain	-7071
▁continuing	-7072
ronze	-7073
▁wins	-7074
▁operate	-7075
▁afterwards	-7076
umin	-7077
▁900	-7078
▁ori	-7079
▁1934	-7080
▁appropri	-7081
▁hundreds	-7082
▁journalist	-7083
▁battleships	-7084
▁environmental	-7085
▁Niel	-7086
▁closer	-7087
▁acknowled	-7088
mes	-7089
orage	-7090
▁weekend	-7091
▁engineer	-7092
▁narrative	-7093
ugby	-7094
icide	-7095
▁credit	-7096
▁conclusion	-7097
elle	-7098
olec	-7099
▁Dean	-7100
▁Ward	-7101
har	-7102
rum	-7103
▁Tok	-7104
scape	-7105
aska	-7106
▁gal	-7107
▁Bros	-7108
▁format	-7109
▁longest	-7110
oen	-7111
▁eat	-7112
▁1900	-7113
▁believes	-7114
eare	-7115
▁fal	-7116
enses	-7117
▁1926	-7118
▁standards	-7119
▁Sav	-7120
▁bes	-7121
▁handed	-7122
Ar	-7123
rait	-7124
▁Bang	-7125
▁Manhatt	-7126
aya	-7127
▁ru	-7128
▁mine	-7129
▁tests	-7130
▁Iv	-7131
▁ridge	-7132
▁inhabit	-7133
▁Cas	-7134
▁renew	-7135
▁diplom	-7136
▁Shakespeare	-7137
▁hunting	-7138
▁Manhattan	-7139
▁characteristics	-7140
▁bats	-7141
▁Social	-7142
▁Network	-7143
▁Labor	-7144
▁scrap	-7145
▁Brother	-7146
▁Library	-7147
▁adaptation	-7148
▁retirement	-7149
iens	-7150
▁visible	-7151
▁attempting	-7152
▁170	-7153
▁alleg	-7154
▁trials	-7155
▁NFL	-7156
▁Holy	-7157
▁Master	-7158
▁landed	-7159
ternal	-7160
▁deployed	-7161
▁documentary	-7162
▁Last	-7163
▁flew	-7164
▁absence	-7165
▁municip	-7166
▁Desc	-7167
coming	-7168
jan	-7169
oral	-7170
ching	-7171
▁looked	-7172
▁channel	-7173
▁Dal	-7174
text	-7175
▁nickn	-7176
▁Bradman	-7177
▁suffering	-7178
▁influences	-7179
▁1929	-7180
▁1931	-7181
ellite	-7182
▁Robinson	-7183
ache	-7184
ican	-7185
orial	-7186
▁suit	-7187
▁spend	-7188
▁Origin	-7189
▁stable	-7190
▁encouraged	-7191
▁reportedly	-7192
▁Hero	-7193
viation	-7194
eping	-7195
▁giant	-7196
▁biggest	-7197
CA	-7198
▁Late	-7199
▁excess	-7200
▁Oak	-7201
▁1912	-7202
▁1927	-7203
ultane	-7204
▁discussed	-7205
▁Dest	-7206
chen	-7207
orous	-7208
▁behavi	-7209
▁questions	-7210
icians	-7211
▁Seattle	-7212
▁chain	-7213
▁victims	-7214
▁Ok	-7215
▁offices	-7216
▁informed	-7217
▁modified	-7218
▁influential	-7219
▁sudden	-7220
▁Express	-7221
▁executed	-7222
▁formerly	-7223
arts	-7224
aste	-7225
▁leads	-7226
igration	-7227
▁Evans	-7228
▁skills	-7229
▁unsuccessful	-7230
▁USA	-7231
aza	-7232
▁09	-7233
uster	-7234
▁Iowa	-7235
▁preferred	-7236
▁Bi	-7237
▁Detroit	-7238
▁Indians	-7239
▁Hop	-7240
▁NBC	-7241
▁sees	-7242
▁trained	-7243
▁measures	-7244
▁passenger	-7245
ds	-7246
▁05	-7247
rees	-7248
▁cancer	-7249
ogan	-7250
▁detailed	-7251
ES	-7252
▁maint	-7253
▁learning	-7254
apse	-7255
anton	-7256
▁legend	-7257
ropolitan	-7258
hess	-7259
tenance	-7260
▁Caribbean	-7261
▁Education	-7262
▁NC	-7263
▁concur	-7264
rot	-7265
▁fur	-7266
▁Albums	-7267
▁Gri	-7268
▁dub	-7269
▁sight	-7270
▁veget	-7271
▁attacking	-7272
aser	-7273
burn	-7274
▁Dur	-7275
▁Forces	-7276
▁achieve	-7277
rome	-7278
▁Rey	-7279
▁oxygen	-7280
▁Premier	-7281
▁apparently	-7282
▁Organ	-7283
▁intent	-7284
▁convention	-7285
▁relationships	-7286
dule	-7287
oust	-7288
▁DNA	-7289
▁Guy	-7290
▁Whe	-7291
▁Greece	-7292
▁taught	-7293
▁uniform	-7294
iliar	-7295
▁votes	-7296
▁detail	-7297
▁arrangement	-7298
▁Tal	-7299
▁bear	-7300
▁gets	-7301
▁alien	-7302
▁enters	-7303
▁ocean	-7304
▁pregn	-7305
▁veter	-7306
▁novels	-7307
▁chairman	-7308
▁submarine	-7309
kes	-7310
ouri	-7311
▁Santa	-7312
▁Minnes	-7313
▁reconst	-7314
▁Bed	-7315
▁depos	-7316
oyd	-7317
▁Anna	-7318
▁legs	-7319
▁pound	-7320
▁Queens	-7321
▁convoy	-7322
▁intense	-7323
▁Ker	-7324
▁Sym	-7325
▁treated	-7326
don	-7327
▁extent	-7328
▁thousand	-7329
▁Nevertheless	-7330
phy	-7331
▁kid	-7332
▁insc	-7333
▁ride	-7334
▁Warner	-7335
▁Wright	-7336
▁styles	-7337
▁basketball	-7338
night	-7339
ugosl	-7340
anz	-7341
▁Mes	-7342
▁imprison	-7343
▁substantial	-7344
▁Morris	-7345
▁Roberts	-7346
▁dialogue	-7347
▁AR	-7348
▁McD	-7349
▁neck	-7350
▁deemed	-7351
▁tempor	-7352
▁frequent	-7353
▁Fal	-7354
senal	-7355
▁RAAF	-7356
▁device	-7357
▁Hardy	-7358
▁hearing	-7359
▁publisher	-7360
rim	-7361
helm	-7362
▁Hans	-7363
▁library	-7364
▁isolated	-7365
usic	-7366
▁defended	-7367
▁Hin	-7368
▁Hand	-7369
▁Blood	-7370
▁gather	-7371
▁1911	-7372
▁partly	-7373
▁photograph	-7374
▁Bah	-7375
▁accompany	-7376
▁140	-7377
arked	-7378
▁resear	-7379
▁formally	-7380
oto	-7381
▁Track	-7382
iable	-7383
▁Cher	-7384
▁outf	-7385
▁Sweden	-7386
▁Heavy	-7387
▁churches	-7388
DS	-7389
▁sympt	-7390
▁vision	-7391
▁indicate	-7392
▁policies	-7393
zz	-7394
agu	-7395
▁Ult	-7396
▁upd	-7397
encing	-7398
▁ranking	-7399
▁testing	-7400
▁window	-7401
▁Anthony	-7402
▁designer	-7403
▁generated	-7404
▁thereafter	-7405
ée	-7406
▁Ot	-7407
▁Ark	-7408
▁ske	-7409
usted	-7410
▁Bull	-7411
▁pull	-7412
▁shear	-7413
▁visitors	-7414
▁prevented	-7415
▁pin	-7416
▁diagn	-7417
▁footage	-7418
▁Category	-7419
▁notably	-7420
fare	-7421
▁Aud	-7422
ilers	-7423
▁Story	-7424
▁Flight	-7425
▁facing	-7426
▁poetry	-7427
▁drawing	-7428
▁protagonist	-7429
▁lob	-7430
▁easy	-7431
▁bridges	-7432
▁periods	-7433
▁railroad	-7434
▁organizations	-7435
▁Free	-7436
▁chapter	-7437
▁resigned	-7438
ribed	-7439
▁refuge	-7440
▁pointed	-7441
▁Wrestling	-7442
ture	-7443
▁Belg	-7444
▁childhood	-7445
▁Edd	-7446
▁Cook	-7447
▁Oliv	-7448
▁plate	-7449
▁Cooper	-7450
▁Malays	-7451
▁precip	-7452
▁refers	-7453
▁Nielsen	-7454
▁linked	-7455
▁Chamber	-7456
▁negotiations	-7457
▁dynasty	-7458
▁Sullivan	-7459
▁comments	-7460
▁Initially	-7461
▁Walker	-7462
▁opponents	-7463
▁personality	-7464
▁RAF	-7465
▁Mars	-7466
▁Houston	-7467
▁boys	-7468
▁picked	-7469
▁overs	-7470
▁McCart	-7471
▁Samuel	-7472
▁reveals	-7473
▁instance	-7474
▁outbreak	-7475
▁Jews	-7476
▁Horse	-7477
▁agree	-7478
▁Stewart	-7479
▁pitched	-7480
iami	-7481
attered	-7482
▁Player	-7483
▁whereas	-7484
▁territories	-7485
▁Ll	-7486
▁existed	-7487
▁happened	-7488
▁Op	-7489
ante	-7490
iece	-7491
▁Nar	-7492
▁Hong	-7493
▁Mort	-7494
▁divor	-7495
▁Spears	-7496
▁participate	-7497
▁Lane	-7498
▁Anglo	-7499
▁pushed	-7500
▁impressed	-7501
ila	-7502
sex	-7503
▁successor	-7504
▁Est	-7505
▁drums	-7506
▁rates	-7507
▁firing	-7508
ois	-7509
otes	-7510
away	-7511
▁Chronic	-7512
▁Missouri	-7513
▁battleship	-7514
ova	-7515
▁Banks	-7516
▁Scient	-7517
▁Yugosl	-7518
noon	-7519
raph	-7520
▁Bird	-7521
utt	-7522
oked	-7523
▁phr	-7524
▁vic	-7525
▁exposed	-7526
▁Ku	-7527
▁mir	-7528
▁watching	-7529
gas	-7530
▁Miami	-7531
▁Writing	-7532
▁Raw	-7533
▁map	-7534
▁reun	-7535
▁driver	-7536
▁surrender	-7537
▁uncertain	-7538
▁ped	-7539
ologists	-7540
▁neighborhood	-7541
▁Dave	-7542
▁hat	-7543
▁Buck	-7544
▁traveled	-7545
▁scientists	-7546
yo	-7547
▁Ext	-7548
▁withdrew	-7549
roke	-7550
▁Tun	-7551
▁pric	-7552
▁verse	-7553
▁Garden	-7554
▁encountered	-7555
▁complic	-7556
ilst	-7557
▁vul	-7558
▁junior	-7559
▁understand	-7560
▁1922	-7561
▁collaps	-7562
▁compete	-7563
▁bon	-7564
icine	-7565
▁Brig	-7566
▁happy	-7567
▁speak	-7568
▁values	-7569
▁Hungary	-7570
▁Championships	-7571
▁Austria	-7572
▁truth	-7573
▁keeping	-7574
▁normally	-7575
▁ca	-7576
▁deter	-7577
▁elections	-7578
▁Lam	-7579
▁symp	-7580
▁util	-7581
▁factor	-7582
▁rebell	-7583
▁reprodu	-7584
MA	-7585
▁safe	-7586
▁resign	-7587
▁Croatian	-7588
inction	-7589
▁Berlin	-7590
▁dangerous	-7591
▁py	-7592
idae	-7593
▁Bab	-7594
▁rot	-7595
opter	-7596
▁Mach	-7597
▁beach	-7598
▁ethnic	-7599
sters	-7600
▁Turkish	-7601
IA	-7602
▁Typ	-7603
▁avo	-7604
power	-7605
▁flash	-7606
▁upgraded	-7607
▁Dead	-7608
▁proport	-7609
▁McCartney	-7610
▁Hud	-7611
▁Know	-7612
po	-7613
▁aged	-7614
urance	-7615
▁cargo	-7616
▁truck	-7617
▁announce	-7618
▁reviewers	-7619
▁Then	-7620
▁windows	-7621
▁anticip	-7622
lie	-7623
▁Blues	-7624
▁departed	-7625
▁rivers	-7626
▁residential	-7627
▁07	-7628
▁Wol	-7629
▁tone	-7630
▁tribute	-7631
▁Cra	-7632
▁enthus	-7633
▁rarely	-7634
▁benefit	-7635
▁partnership	-7636
odge	-7637
▁Anim	-7638
species	-7639
aws	-7640
▁Ian	-7641
inder	-7642
▁1890	-7643
tic	-7644
▁doesn	-7645
▁specimens	-7646
▁mainstream	-7647
▁Canal	-7648
▁Czech	-7649
▁Hockey	-7650
▁storms	-7651
▁forests	-7652
▁conscious	-7653
▁USD	-7654
onymous	-7655
▁vessel	-7656
▁spending	-7657
ori	-7658
▁Zh	-7659
uary	-7660
▁turb	-7661
▁brand	-7662
▁agents	-7663
▁Non	-7664
▁Vice	-7665
rupted	-7666
▁trend	-7667
▁extreme	-7668
▁Princess	-7669
▁Minnesota	-7670
▁partially	-7671
▁1924	-7672
▁honour	-7673
▁Cold	-7674
▁innov	-7675
▁Grammy	-7676
▁Having	-7677
▁consult	-7678
▁platinum	-7679
▁simultane	-7680
mers	-7681
▁Mun	-7682
▁proced	-7683
▁moments	-7684
ester	-7685
▁1925	-7686
eton	-7687
▁orb	-7688
▁founder	-7689
▁friendly	-7690
▁teaching	-7691
ifer	-7692
▁Kal	-7693
▁Human	-7694
ylan	-7695
▁arts	-7696
▁minimum	-7697
▁afternoon	-7698
▁Lim	-7699
▁diameter	-7700
▁Peninsula	-7701
▁maintenance	-7702
vens	-7703
▁abol	-7704
▁sure	-7705
▁relie	-7706
itud	-7707
usal	-7708
▁Soon	-7709
▁covers	-7710
▁understanding	-7711
30	-7712
▁Om	-7713
dale	-7714
▁Industry	-7715
▁tie	-7716
▁falls	-7717
▁lowest	-7718
▁remove	-7719
▁adjacent	-7720
gery	-7721
▁credits	-7722
▁recommend	-7723
icts	-7724
rows	-7725
etime	-7726
▁Camer	-7727
▁corpor	-7728
▁creative	-7729
▁criticised	-7730
icy	-7731
▁1928	-7732
asters	-7733
▁finals	-7734
▁pool	-7735
▁DC	-7736
▁Hem	-7737
▁fishing	-7738
▁restric	-7739
▁McL	-7740
oking	-7741
▁Cred	-7742
▁phen	-7743
▁Ministry	-7744
▁engineering	-7745
▁unn	-7746
imore	-7747
prise	-7748
▁Gaga	-7749
▁Country	-7750
▁listing	-7751
▁Portland	-7752
▁technique	-7753
▁Ice	-7754
avery	-7755
overe	-7756
▁murd	-7757
▁vice	-7758
▁covering	-7759
ographical	-7760
▁Croatia	-7761
▁telling	-7762
▁possession	-7763
agen	-7764
▁Dylan	-7765
▁Kansas	-7766
▁monarch	-7767
osm	-7768
olas	-7769
▁tub	-7770
▁Bure	-7771
▁audio	-7772
▁Vinc	-7773
▁categ	-7774
▁Treaty	-7775
▁apprec	-7776
▁medium	-7777
▁Swedish	-7778
▁describe	-7779
▁Cru	-7780
▁examples	-7781
▁Event	-7782
▁repair	-7783
▁housing	-7784
▁absol	-7785
▁acted	-7786
▁Mississ	-7787
▁minimal	-7788
no	-7789
▁Ped	-7790
▁huge	-7791
▁mand	-7792
▁Pitts	-7793
▁schedule	-7794
▁destroyers	-7795
▁recordings	-7796
▁paintings	-7797
▁Get	-7798
▁bases	-7799
▁Athlet	-7800
▁powered	-7801
▁permission	-7802
▁difficulties	-7803
SP	-7804
uv	-7805
▁ju	-7806
▁treaty	-7807
▁Release	-7808
▁Frederick	-7809
▁designation	-7810
▁instrumental	-7811
ao	-7812
▁nom	-7813
▁lose	-7814
▁cooper	-7815
▁restrict	-7816
▁Ple	-7817
▁Pok	-7818
▁alter	-7819
▁videos	-7820
▁approval	-7821
▁explosion	-7822
ogram	-7823
▁pret	-7824
uscript	-7825
▁Palest	-7826
▁molec	-7827
▁advice	-7828
▁crisis	-7829
▁Tenness	-7830
▁prompted	-7831
▁spiritual	-7832
▁Arsenal	-7833
iac	-7834
▁Son	-7835
▁Lith	-7836
▁grey	-7837
▁doctor	-7838
▁victories	-7839
iders	-7840
ounced	-7841
▁advis	-7842
▁resumed	-7843
▁electronic	-7844
▁164	-7845
▁stem	-7846
▁Crown	-7847
unction	-7848
▁Somers	-7849
▁excell	-7850
▁creator	-7851
▁ax	-7852
▁Jess	-7853
▁inher	-7854
▁mines	-7855
▁Record	-7856
▁carrier	-7857
▁subspecies	-7858
idi	-7859
▁Xbox	-7860
overeign	-7861
▁defeating	-7862
▁occupation	-7863
unes	-7864
▁Kelly	-7865
▁grown	-7866
▁tenth	-7867
▁underw	-7868
atherine	-7869
▁villages	-7870
▁employees	-7871
▁Foundation	-7872
▁pron	-7873
forced	-7874
▁strip	-7875
▁finale	-7876
▁violent	-7877
▁changing	-7878
mission	-7879
▁Legacy	-7880
▁unlike	-7881
▁dollar	-7882
▁Charlie	-7883
▁Depression	-7884
▁intensified	-7885
uda	-7886
anium	-7887
▁percentage	-7888
▁ML	-7889
▁wet	-7890
▁dollars	-7891
overs	-7892
▁initi	-7893
▁Alfred	-7894
▁purposes	-7895
▁diff	-7896
▁collapse	-7897
▁Baltimore	-7898
▁Islam	-7899
▁forcing	-7900
▁survive	-7901
▁Campbell	-7902
mate	-7903
▁1905	-7904
▁teeth	-7905
weet	-7906
▁Raj	-7907
chell	-7908
ennis	-7909
▁Howe	-7910
igs	-7911
▁Merc	-7912
active	-7913
▁flights	-7914
orph	-7915
▁jazz	-7916
▁excav	-7917
▁moral	-7918
▁recur	-7919
munition	-7920
▁animation	-7921
cop	-7922
▁sank	-7923
▁discip	-7924
▁helping	-7925
▁Guardian	-7926
▁goods	-7927
iveness	-7928
▁Children	-7929
▁Tennessee	-7930
▁displayed	-7931
▁Philippines	-7932
▁representative	-7933
▁els	-7934
▁gat	-7935
▁Ring	-7936
▁tot	-7937
▁diet	-7938
▁Township	-7939
▁elsewhere	-7940
▁collaboration	-7941
ls	-7942
sky	-7943
ctic	-7944
▁Switzer	-7945
▁balance	-7946
▁degrees	-7947
▁seeking	-7948
▁concerts	-7949
ooking	-7950
▁Barry	-7951
▁elabor	-7952
▁Melbourne	-7953
▁occasions	-7954
▁Cob	-7955
orious	-7956
▁Lawrence	-7957
▁Dw	-7958
▁Mint	-7959
▁Return	-7960
▁neutral	-7961
▁Marshall	-7962
▁symptoms	-7963
itated	-7964
issions	-7965
▁tunnel	-7966
▁Switzerland	-7967
roc	-7968
▁soil	-7969
▁prohib	-7970
▁explo	-7971
▁bypass	-7972
▁Persian	-7973
▁dispute	-7974
▁publicly	-7975
action	-7976
▁joining	-7977
▁concrete	-7978
▁overt	-7979
▁smooth	-7980
▁disaster	-7981
▁arriving	-7982
▁monument	-7983
▁Interstate	-7984
▁Laure	-7985
▁assess	-7986
▁Austrian	-7987
▁Mississipp	-7988
▁Rang	-7989
▁dies	-7990
▁Tamil	-7991
▁filed	-7992
ensions	-7993
▁Edwards	-7994
▁ammunition	-7995
aha	-7996
▁canal	-7997
ception	-7998
▁Graham	-7999
▁Christopher	-8000
okes	-8001
▁Maur	-8002
alities	-8003
ulating	-8004
▁pilots	-8005
▁fifteen	-8006
▁preserved	-8007
▁underground	-8008
▁Hills	-8009
▁Hotel	-8010
▁amongst	-8011
▁thinking	-8012
face	-8013
▁Nik	-8014
▁Ariz	-8015
▁hull	-8016
▁poorly	-8017
▁measured	-8018
▁survivors	-8019
gro	-8020
▁feelings	-8021
▁resolution	-8022
▁asks	-8023
▁thin	-8024
▁string	-8025
nik	-8026
▁ABC	-8027
onies	-8028
▁1908	-8029
imeter	-8030
▁inaug	-8031
▁chronic	-8032
bra	-8033
omot	-8034
▁satellite	-8035
▁tex	-8036
▁Wolf	-8037
▁cruisers	-8038
▁125	-8039
alions	-8040
▁skull	-8041
▁Steven	-8042
▁pounds	-8043
▁nations	-8044
▁encounter	-8045
ateur	-8046
▁feud	-8047
▁03	-8048
bird	-8049
▁Offic	-8050
▁functions	-8051
▁foundation	-8052
▁newspapers	-8053
olis	-8054
▁recre	-8055
▁slaves	-8056
▁Somerset	-8057
▁boundary	-8058
▁Race	-8059
▁advoc	-8060
▁procl	-8061
▁mining	-8062
▁rhythm	-8063
▁Perform	-8064
▁01	-8065
▁Historic	-8066
inian	-8067
▁Cuba	-8068
▁Montreal	-8069
▁circumst	-8070
fe	-8071
▁Scout	-8072
▁aimed	-8073
▁multi	-8074
▁asking	-8075
▁rounds	-8076
▁Arizona	-8077
▁travelled	-8078
▁eliminated	-8079
▁appointment	-8080
je	-8081
gate	-8082
▁dimens	-8083
▁backing	-8084
▁situated	-8085
▁abilities	-8086
▁compilation	-8087
▁sunk	-8088
▁orbit	-8089
▁waves	-8090
▁option	-8091
▁suicide	-8092
▁manuscript	-8093
▁anch	-8094
unc	-8095
▁synd	-8096
▁Jason	-8097
▁Belgium	-8098
▁controll	-8099
aria	-8100
▁Ridge	-8101
▁wicket	-8102
▁Senator	-8103
uable	-8104
▁evil	-8105
ivated	-8106
▁prime	-8107
▁Michel	-8108
▁autobi	-8109
pent	-8110
▁Ald	-8111
▁Hamp	-8112
▁Trust	-8113
▁signs	-8114
▁Louisiana	-8115
▁impossible	-8116
ika	-8117
▁Sab	-8118
▁1923	-8119
▁lect	-8120
resents	-8121
▁escaped	-8122
▁Morrison	-8123
▁fighters	-8124
▁interesting	-8125
atics	-8126
▁alco	-8127
onnaissance	-8128
▁institutions	-8129
▁Dom	-8130
azing	-8131
▁1880	-8132
▁Guide	-8133
▁liked	-8134
▁distinctive	-8135
▁agricultural	-8136
▁Lev	-8137
ellect	-8138
▁funeral	-8139
▁scholar	-8140
▁Native	-8141
▁custom	-8142
riptions	-8143
▁horror	-8144
▁suspended	-8145
▁represents	-8146
▁Much	-8147
▁exit	-8148
▁Health	-8149
▁touring	-8150
▁beautiful	-8151
▁seats	-8152
▁citing	-8153
▁bombers	-8154
▁assisted	-8155
▁surprise	-8156
▁argues	-8157
▁analy	-8158
▁adventure	-8159
▁EP	-8160
▁turrets	-8161
▁junction	-8162
IS	-8163
TA	-8164
bal	-8165
▁04	-8166
▁Jesus	-8167
▁wreck	-8168
▁characterized	-8169
▁mainland	-8170
▁vel	-8171
▁copy	-8172
endment	-8173
▁sequences	-8174
hm	-8175
▁draf	-8176
EC	-8177
▁Benj	-8178
▁prol	-8179
▁Murphy	-8180
▁Mississippi	-8181
urally	-8182
▁usual	-8183
▁criminal	-8184
▁operational	-8185
rm	-8186
▁1909	-8187
▁Kurt	-8188
▁seed	-8189
▁marry	-8190
▁worship	-8191
▁temporarily	-8192
▁Rih	-8193
▁colony	-8194
▁hockey	-8195
▁signing	-8196
isp	-8197
amic	-8198
▁Haz	-8199
▁jur	-8200
▁Comb	-8201
▁Giants	-8202
▁Napole	-8203
▁imperial	-8204
▁fil	-8205
▁Cole	-8206
▁Dance	-8207
▁Satur	-8208
▁solar	-8209
▁refere	-8210
▁subjects	-8211
▁err	-8212
▁rig	-8213
▁wel	-8214
▁nucle	-8215
▁simpl	-8216
▁surge	-8217
▁Territ	-8218
▁Warren	-8219
▁closing	-8220
▁wedding	-8221
▁struggle	-8222
eled	-8223
ilty	-8224
▁lists	-8225
▁Rachel	-8226
▁affair	-8227
▁competed	-8228
▁lieutenant	-8229
itter	-8230
▁rout	-8231
▁suitable	-8232
▁submitted	-8233
▁Polit	-8234
▁Muslim	-8235
▁coordin	-8236
▁audiences	-8237
ski	-8238
incial	-8239
▁Program	-8240
▁Rihanna	-8241
▁interpre	-8242
gie	-8243
▁infl	-8244
▁storage	-8245
▁coverage	-8246
▁inhabitants	-8247
▁166	-8248
itting	-8249
▁overw	-8250
▁radar	-8251
▁Dragon	-8252
▁earthqu	-8253
▁dramatic	-8254
▁Australians	-8255
sk	-8256
▁Lin	-8257
ipped	-8258
▁bulk	-8259
▁twin	-8260
father	-8261
▁Perry	-8262
▁behalf	-8263
▁Wilhelm	-8264
▁explain	-8265
▁targets	-8266
▁attendance	-8267
▁registered	-8268
▁gay	-8269
▁Rico	-8270
▁predicted	-8271
▁comparison	-8272
▁Aff	-8273
▁Rap	-8274
▁Craig	-8275
▁Titan	-8276
▁mountains	-8277
▁Lov	-8278
▁Leaf	-8279
▁Lost	-8280
▁grav	-8281
strong	-8282
▁ranging	-8283
▁Margaret	-8284
lings	-8285
▁Prom	-8286
▁ninet	-8287
▁deliber	-8288
▁Benjamin	-8289
▁controls	-8290
▁suggesting	-8291
▁Ay	-8292
idel	-8293
▁circuit	-8294
cho	-8295
▁Building	-8296
▁replacing	-8297
▁residence	-8298
inations	-8299
▁context	-8300
▁expensive	-8301
▁businesses	-8302
▁contributions	-8303
▁155	-8304
▁wasn	-8305
▁Metro	-8306
▁erupt	-8307
▁genetic	-8308
▁militia	-8309
▁argument	-8310
agh	-8311
acle	-8312
▁165	-8313
▁Area	-8314
▁Boys	-8315
▁Files	-8316
▁familiar	-8317
▁vertical	-8318
rang	-8319
▁Amy	-8320
▁Box	-8321
▁rit	-8322
estone	-8323
▁sector	-8324
▁Represent	-8325
▁candidates	-8326
vis	-8327
▁parish	-8328
▁voiced	-8329
▁favorable	-8330
▁Si	-8331
▁105	-8332
▁adopt	-8333
▁forty	-8334
▁conspir	-8335
▁diamond	-8336
▁alignment	-8337
▁demonstrated	-8338
rage	-8339
otten	-8340
▁helic	-8341
▁Vis	-8342
▁Nazi	-8343
▁depending	-8344
▁Goth	-8345
▁artwork	-8346
amps	-8347
▁Cow	-8348
▁meat	-8349
▁poems	-8350
▁Reagan	-8351
▁explains	-8352
▁360	-8353
▁Gab	-8354
▁Juan	-8355
▁inland	-8356
▁Administ	-8357
▁severely	-8358
▁communication	-8359
▁Billy	-8360
▁Call	-8361
▁prosp	-8362
▁clearly	-8363
▁Business	-8364
▁attained	-8365
▁distinguished	-8366
▁MP	-8367
▁cub	-8368
tario	-8369
▁Trek	-8370
▁ranks	-8371
▁Originally	-8372
▁kW	-8373
▁marks	-8374
▁Bureau	-8375
▁readers	-8376
▁merchant	-8377
▁northward	-8378
▁Independent	-8379
▁Cyr	-8380
▁Ontario	-8381
▁westward	-8382
▁conservative	-8383
agg	-8384
enh	-8385
life	-8386
▁Khan	-8387
▁rebuilt	-8388
▁application	-8389
▁bay	-8390
▁1870	-8391
ishment	-8392
▁notice	-8393
▁tribes	-8394
▁repairs	-8395
▁Broadway	-8396
▁Joh	-8397
▁1907	-8398
▁fallen	-8399
▁willing	-8400
▁engagement	-8401
▁Hur	-8402
▁Brun	-8403
▁Maya	-8404
▁abund	-8405
▁spotted	-8406
▁recognised	-8407
rine	-8408
▁acceler	-8409
▁dominant	-8410
▁Bosn	-8411
▁crest	-8412
▁Econom	-8413
▁Digital	-8414
▁predomin	-8415
rep	-8416
rator	-8417
storm	-8418
▁frig	-8419
ischer	-8420
▁copper	-8421
▁Bernard	-8422
uma	-8423
▁Small	-8424
▁Stock	-8425
▁offering	-8426
▁documents	-8427
▁Mrs	-8428
ectic	-8429
uations	-8430
▁agency	-8431
▁reflected	-8432
▁definition	-8433
ods	-8434
▁Hindu	-8435
▁Nixon	-8436
▁Critics	-8437
▁increases	-8438
▁ownership	-8439
▁philosophy	-8440
▁Ye	-8441
andal	-8442
▁Swiss	-8443
▁fifty	-8444
▁Guitar	-8445
▁choose	-8446
▁slavery	-8447
▁athletes	-8448
▁din	-8449
▁myst	-8450
▁fixed	-8451
▁Romney	-8452
▁Delaware	-8453
▁Mitchell	-8454
▁remnants	-8455
▁Lem	-8456
phony	-8457
▁lacked	-8458
▁pulled	-8459
▁predecessor	-8460
eland	-8461
mates	-8462
▁Glen	-8463
▁intellect	-8464
▁Seven	-8465
▁professor	-8466
▁pale	-8467
▁Labour	-8468
▁artistic	-8469
aft	-8470
▁Atlanta	-8471
▁disagre	-8472
LC	-8473
▁affairs	-8474
oven	-8475
▁Baby	-8476
▁panel	-8477
▁reluct	-8478
▁evolved	-8479
▁Baseball	-8480
ques	-8481
▁Ren	-8482
▁yield	-8483
▁disappoin	-8484
▁exhibition	-8485
▁neighb	-8486
▁illness	-8487
▁tru	-8488
▁Mong	-8489
▁Pope	-8490
▁elder	-8491
▁civilian	-8492
uman	-8493
▁earn	-8494
▁destro	-8495
▁preparation	-8496
ouver	-8497
ieties	-8498
▁Johnny	-8499
▁Greater	-8500
▁Champion	-8501
▁Universal	-8502
▁restaurant	-8503
tha	-8504
▁rub	-8505
▁liqu	-8506
▁subt	-8507
▁breat	-8508
▁opponent	-8509
▁behaviour	-8510
▁174	-8511
▁Jimmy	-8512
Sp	-8513
uki	-8514
▁Daw	-8515
▁kit	-8516
▁Peng	-8517
▁ideal	-8518
▁reven	-8519
▁margin	-8520
▁patterns	-8521
▁Armstrong	-8522
▁completing	-8523
imp	-8524
▁104	-8525
▁Inn	-8526
▁Mik	-8527
arant	-8528
▁Indies	-8529
▁earning	-8530
▁households	-8531
▁Set	-8532
entle	-8533
▁Kirk	-8534
ocking	-8535
rating	-8536
▁curren	-8537
▁1904	-8538
▁tiss	-8539
▁practices	-8540
▁print	-8541
▁Living	-8542
▁chamber	-8543
▁console	-8544
▁Maj	-8545
▁Tag	-8546
ecraft	-8547
▁diver	-8548
▁assists	-8549
▁Fem	-8550
▁Lion	-8551
▁Near	-8552
orders	-8553
▁coinc	-8554
▁wants	-8555
▁Internet	-8556
bl	-8557
▁Sle	-8558
obile	-8559
▁Fall	-8560
▁loan	-8561
▁decides	-8562
elli	-8563
▁127	-8564
ffield	-8565
▁revers	-8566
▁gang	-8567
▁affect	-8568
▁allies	-8569
▁rising	-8570
▁shield	-8571
▁terror	-8572
▁alliance	-8573
▁perspective	-8574
ascar	-8575
▁Chen	-8576
▁fung	-8577
▁quiet	-8578
▁retail	-8579
▁sky	-8580
▁Triple	-8581
▁enlisted	-8582
opp	-8583
imen	-8584
▁roots	-8585
▁obtain	-8586
▁whilst	-8587
▁crews	-8588
▁prepare	-8589
inea	-8590
▁Soul	-8591
mented	-8592
▁frust	-8593
▁perceived	-8594
▁Sem	-8595
▁plus	-8596
▁surrend	-8597
▁cancelled	-8598
FC	-8599
arr	-8600
▁Such	-8601
▁vast	-8602
▁pione	-8603
▁condem	-8604
▁serial	-8605
▁profile	-8606
▁sisters	-8607
▁administrative	-8608
▁AC	-8609
▁execut	-8610
▁Alexand	-8611
xual	-8612
▁cod	-8613
▁cous	-8614
▁Nancy	-8615
▁drove	-8616
bow	-8617
urer	-8618
▁boss	-8619
▁Burton	-8620
▁exclud	-8621
▁Sheffield	-8622
▁Somet	-8623
▁musician	-8624
unch	-8625
▁bid	-8626
▁arrive	-8627
▁legacy	-8628
sequently	-8629
▁wore	-8630
idency	-8631
▁partial	-8632
▁reaches	-8633
▁02	-8634
▁Kit	-8635
▁Kings	-8636
▁obvious	-8637
▁Egyptian	-8638
▁playoffs	-8639
▁remarked	-8640
10	-8641
▁Rat	-8642
▁Phoen	-8643
▁Thunder	-8644
▁comfort	-8645
▁Campaign	-8646
▁Saturday	-8647
▁restricted	-8648
▁Confederate	-8649
▁punk	-8650
▁anime	-8651
▁threw	-8652
▁observations	-8653
eu	-8654
asa	-8655
sea	-8656
ses	-8657
▁hybr	-8658
▁bronze	-8659
▁shells	-8660
▁Som	-8661
odore	-8662
▁Arnold	-8663
irates	-8664
▁insects	-8665
OC	-8666
▁badly	-8667
▁democr	-8668
▁delivery	-8669
ng	-8670
ags	-8671
▁Nav	-8672
▁1906	-8673
▁unex	-8674
▁soldier	-8675
▁electron	-8676
▁directors	-8677
▁McM	-8678
▁ski	-8679
otton	-8680
▁Sony	-8681
▁gust	-8682
▁Fried	-8683
▁triple	-8684
▁waiting	-8685
▁Pittsburgh	-8686
anches	-8687
▁Tokyo	-8688
▁fastest	-8689
▁peaking	-8690
▁surgery	-8691
▁starring	-8692
▁rif	-8693
▁gate	-8694
▁drugs	-8695
▁slave	-8696
▁racing	-8697
▁seriously	-8698
orer	-8699
▁115	-8700
▁Edge	-8701
▁signal	-8702
▁continu	-8703
▁emperor	-8704
▁apartment	-8705
pike	-8706
ruption	-8707
▁topped	-8708
▁demanded	-8709
owed	-8710
roph	-8711
▁orn	-8712
omber	-8713
▁Madag	-8714
▁objective	-8715
▁restoration	-8716
equ	-8717
▁Ko	-8718
▁Yan	-8719
acked	-8720
▁Fischer	-8721
rast	-8722
▁vulner	-8723
ancouver	-8724
▁Defence	-8725
▁152	-8726
▁Tel	-8727
▁Bach	-8728
▁artific	-8729
ye	-8730
▁Bh	-8731
▁lin	-8732
▁Less	-8733
▁brick	-8734
▁Vancouver	-8735
irm	-8736
olid	-8737
▁fro	-8738
▁Buddh	-8739
▁Honor	-8740
▁faster	-8741
▁fossil	-8742
▁promised	-8743
hin	-8744
shore	-8745
▁layer	-8746
▁phenomen	-8747
▁dissipated	-8748
pty	-8749
▁kings	-8750
▁demands	-8751
pan	-8752
▁outl	-8753
▁tight	-8754
▁strict	-8755
▁Federation	-8756
rings	-8757
▁loop	-8758
▁obst	-8759
▁wider	-8760
▁hypothes	-8761
▁vs	-8762
▁Fif	-8763
▁cup	-8764
▁Pars	-8765
▁Trail	-8766
▁mental	-8767
▁institution	-8768
▁entertainment	-8769
▁AS	-8770
acon	-8771
▁Div	-8772
▁wrest	-8773
▁monaster	-8774
▁Connectic	-8775
AC	-8776
din	-8777
▁CR	-8778
rant	-8779
▁gap	-8780
▁gray	-8781
inding	-8782
enz	-8783
asts	-8784
esses	-8785
▁pole	-8786
▁Connecticut	-8787
wa	-8788
athy	-8789
▁Mason	-8790
▁looks	-8791
▁recip	-8792
▁settlers	-8793
▁Rud	-8794
▁encl	-8795
▁indu	-8796
azines	-8797
oustic	-8798
▁invent	-8799
▁illegal	-8800
▁multipl	-8801
▁essential	-8802
▁comed	-8803
▁phone	-8804
▁pretty	-8805
▁theater	-8806
asant	-8807
▁Shel	-8808
Arthur	-8809
▁saved	-8810
▁amounts	-8811
▁deterior	-8812
onomy	-8813
▁stores	-8814
utton	-8815
▁sket	-8816
▁frame	-8817
▁mayor	-8818
▁useful	-8819
▁electrical	-8820
▁AM	-8821
▁Harv	-8822
▁salt	-8823
▁banks	-8824
▁Harvey	-8825
▁Windows	-8826
▁shipping	-8827
igenous	-8828
▁Eventually	-8829
▁Diam	-8830
bishop	-8831
▁articles	-8832
▁graduated	-8833
adi	-8834
▁168	-8835
▁Andre	-8836
▁pages	-8837
▁printed	-8838
▁portions	-8839
▁youngest	-8840
▁repeatedly	-8841
grad	-8842
▁Ton	-8843
▁mac	-8844
▁alive	-8845
▁cannon	-8846
▁Leonard	-8847
▁Tob	-8848
▁Keith	-8849
▁false	-8850
▁lanes	-8851
▁armour	-8852
WC	-8853
razy	-8854
▁poison	-8855
▁alternate	-8856
▁execution	-8857
▁strategic	-8858
▁nominations	-8859
▁bot	-8860
▁pace	-8861
itudes	-8862
▁Works	-8863
▁insisted	-8864
iph	-8865
oned	-8866
stal	-8867
▁1901	-8868
▁Sega	-8869
▁garden	-8870
▁Madagascar	-8871
cles	-8872
▁Josh	-8873
▁coff	-8874
▁compens	-8875
▁guarant	-8876
▁armament	-8877
▁demolished	-8878
▁Rub	-8879
▁net	-8880
plete	-8881
▁feeding	-8882
▁trouble	-8883
▁Cycl	-8884
▁baby	-8885
▁stick	-8886
▁similarly	-8887
▁conversion	-8888
▁Furthermore	-8889
▁interpretation	-8890
quir	-8891
▁hem	-8892
▁basin	-8893
raction	-8894
▁armored	-8895
▁discont	-8896
▁travels	-8897
umps	-8898
▁Pearl	-8899
▁shift	-8900
▁aspect	-8901
formation	-8902
▁personally	-8903
isd	-8904
▁Deb	-8905
▁Hav	-8906
▁1903	-8907
▁scen	-8908
▁succeed	-8909
▁overseas	-8910
▁elevation	-8911
err	-8912
case	-8913
▁Ral	-8914
▁pip	-8915
rates	-8916
▁1902	-8917
▁hook	-8918
▁Griff	-8919
▁hidden	-8920
▁protein	-8921
▁guitarist	-8922
▁desert	-8923
▁raising	-8924
▁circumstances	-8925
ancell	-8926
▁Peace	-8927
▁Marvel	-8928
▁Oliver	-8929
▁Potter	-8930
▁expand	-8931
▁listen	-8932
▁stress	-8933
▁justice	-8934
▁Railroad	-8935
▁improvements	-8936
▁horn	-8937
▁visiting	-8938
▁orchestra	-8939
▁scattered	-8940
dy	-8941
allas	-8942
▁weekly	-8943
▁removal	-8944
▁precipitation	-8945
▁cock	-8946
▁Lucas	-8947
▁doubt	-8948
▁hosts	-8949
ecution	-8950
inental	-8951
ivation	-8952
▁marketing	-8953
▁connecting	-8954
▁reconnaissance	-8955
velt	-8956
▁jobs	-8957
▁Roose	-8958
▁Spart	-8959
▁accum	-8960
▁meter	-8961
▁engage	-8962
▁guilty	-8963
▁tornado	-8964
▁typhoon	-8965
▁struggled	-8966
▁celebrated	-8967
▁colleagues	-8968
aco	-8969
▁chest	-8970
assador	-8971
▁Friend	-8972
▁burial	-8973
▁prices	-8974
▁density	-8975
aux	-8976
rus	-8977
▁excellent	-8978
▁indicates	-8979
▁secretary	-8980
gom	-8981
aments	-8982
▁Yellow	-8983
▁locomot	-8984
▁decisions	-8985
abs	-8986
otte	-8987
ović	-8988
▁Stu	-8989
▁duo	-8990
borough	-8991
▁aerial	-8992
▁bowling	-8993
▁Original	-8994
▁initiated	-8995
▁strongest	-8996
aron	-8997
mund	-8998
▁Bak	-8999
▁Benn	-9000
▁debt	-9001
▁kiss	-9002
▁frequency	-9003
▁simultaneously	-9004
▁bare	-9005
regation	-9006
▁clothing	-9007
urst	-9008
▁Gary	-9009
▁stere	-9010
▁bombing	-9011
▁highways	-9012
▁expression	-9013
és	-9014
iat	-9015
▁magazines	-9016
aro	-9017
▁Wor	-9018
ensively	-9019
▁biographer	-9020
▁Mem	-9021
▁Bald	-9022
▁Utah	-9023
aughters	-9024
▁Franklin	-9025
▁Jonathan	-9026
▁Pakistan	-9027
▁Fel	-9028
▁tag	-9029
▁sung	-9030
▁bombs	-9031
▁lying	-9032
▁blocks	-9033
▁counties	-9034
▁Outstanding	-9035
▁Eug	-9036
▁Nag	-9037
▁Say	-9038
▁Rand	-9039
▁Prize	-9040
▁patron	-9041
▁UE	-9042
terior	-9043
▁Drive	-9044
▁drivers	-9045
▁exactly	-9046
▁Roosevelt	-9047
▁investment	-9048
rac	-9049
▁Fund	-9050
▁Girls	-9051
▁Dwight	-9052
▁Quebec	-9053
▁limits	-9054
▁confront	-9055
▁MacArthur	-9056
hl	-9057
rik	-9058
▁VI	-9059
aration	-9060
▁Hudson	-9061
▁campaigns	-9062
▁sq	-9063
▁Tol	-9064
▁predict	-9065
▁mechanical	-9066
▁Mack	-9067
▁gathered	-9068
▁Na	-9069
▁Opp	-9070
ulous	-9071
orough	-9072
▁erected	-9073
thy	-9074
▁Boat	-9075
▁danc	-9076
▁Chand	-9077
▁angle	-9078
▁Meteor	-9079
▁explan	-9080
▁forecast	-9081
▁Community	-9082
▁believing	-9083
▁172	-9084
ifies	-9085
▁Nine	-9086
▁Abbey	-9087
▁texts	-9088
▁conventional	-9089
hell	-9090
▁Our	-9091
riors	-9092
▁Bomb	-9093
▁retain	-9094
▁matters	-9095
▁publishing	-9096
▁electricity	-9097
▁arrangements	-9098
boy	-9099
▁horiz	-9100
▁edited	-9101
▁charity	-9102
▁volumes	-9103
▁audition	-9104
▁productions	-9105
▁Jup	-9106
▁Ric	-9107
▁1893	-9108
▁coup	-9109
▁Constant	-9110
▁compounds	-9111
esty	-9112
itals	-9113
▁Marie	-9114
▁feels	-9115
▁founding	-9116
▁striking	-9117
▁acknowledged	-9118
▁experimental	-9119
folk	-9120
▁sad	-9121
▁clin	-9122
▁Micro	-9123
▁Mother	-9124
▁Denmark	-9125
▁flagship	-9126
▁specimen	-9127
adier	-9128
▁brill	-9129
▁Rights	-9130
▁airfield	-9131
abe	-9132
▁Vik	-9133
▁ranges	-9134
▁battalions	-9135
hyl	-9136
amas	-9137
▁voy	-9138
▁bell	-9139
▁confron	-9140
ibilities	-9141
▁Johnston	-9142
▁neighbour	-9143
asha	-9144
enna	-9145
amental	-9146
▁profit	-9147
▁liberal	-9148
▁requires	-9149
▁Victorian	-9150
▁theatrical	-9151
▁tack	-9152
▁Years	-9153
atropical	-9154
▁Similarly	-9155
▁aftermath	-9156
▁defending	-9157
▁appropriate	-9158
▁considering	-9159
▁establishing	-9160
zy	-9161
▁Players	-9162
▁revenue	-9163
ür	-9164
▁prize	-9165
▁supple	-9166
▁talent	-9167
▁Reserve	-9168
▁closest	-9169
olds	-9170
▁memor	-9171
▁backed	-9172
▁placing	-9173
▁collapsed	-9174
▁discovers	-9175
▁provision	-9176
eyer	-9177
rous	-9178
▁Hann	-9179
▁Natural	-9180
▁Vincent	-9181
▁feather	-9182
axy	-9183
▁anth	-9184
▁compliment	-9185
▁Py	-9186
▁sick	-9187
▁prove	-9188
▁Angelou	-9189
▁Protest	-9190
▁donated	-9191
▁extratropical	-9192
▁Laur	-9193
▁Swift	-9194
▁magic	-9195
▁Classic	-9196
▁Princip	-9197
▁Mountains	-9198
ebe	-9199
▁Roll	-9200
▁bones	-9201
▁delay	-9202
▁danger	-9203
▁traded	-9204
▁dancing	-9205
▁ongoing	-9206
▁solution	-9207
▁evacuated	-9208
▁approaching	-9209
▁Leslie	-9210
▁burned	-9211
▁bearing	-9212
▁Convention	-9213
▁aggressive	-9214
▁strengthened	-9215
▁reinforcements	-9216
▁Gate	-9217
▁sample	-9218
▁defences	-9219
illo	-9220
irty	-9221
▁1860	-9222
▁annually	-9223
ti	-9224
nal	-9225
irts	-9226
▁propag	-9227
▁sitting	-9228
▁Hampshire	-9229
ucker	-9230
▁Hind	-9231
▁Sign	-9232
▁Monte	-9233
▁antib	-9234
▁maneu	-9235
▁Newton	-9236
▁cruc	-9237
ennium	-9238
▁Sweet	-9239
▁origins	-9240
▁meetings	-9241
▁indicating	-9242
▁affili	-9243
▁movies	-9244
▁turret	-9245
▁cutting	-9246
▁106	-9247
ipper	-9248
itively	-9249
▁consistent	-9250
phone	-9251
ultan	-9252
▁resol	-9253
▁bacter	-9254
▁devast	-9255
▁altered	-9256
▁walking	-9257
▁birthday	-9258
ello	-9259
onian	-9260
▁Tang	-9261
▁atomic	-9262
▁pursue	-9263
▁alcohol	-9264
▁colonies	-9265
▁pictures	-9266
OT	-9267
▁Ali	-9268
mingham	-9269
▁ceased	-9270
▁seized	-9271
▁talking	-9272
▁hydrogen	-9273
▁Professor	-9274
▁originated	-9275
col	-9276
▁ports	-9277
▁Legend	-9278
▁Foreign	-9279
▁flooded	-9280
▁emphasis	-9281
▁rebellion	-9282
OS	-9283
aman	-9284
▁Pick	-9285
▁sang	-9286
estyle	-9287
▁Miles	-9288
▁funny	-9289
▁Jupiter	-9290
rawn	-9291
▁Kap	-9292
▁Thr	-9293
ospel	-9294
oga	-9295
ologies	-9296
onald	-9297
▁Nord	-9298
▁bonus	-9299
▁fewer	-9300
▁papers	-9301
▁announcement	-9302
oons	-9303
▁cad	-9304
inces	-9305
▁Baker	-9306
▁sharp	-9307
▁waste	-9308
▁Beck	-9309
ambers	-9310
▁Those	-9311
▁Flying	-9312
▁cant	-9313
earing	-9314
▁Apple	-9315
▁tubes	-9316
▁ruling	-9317
▁attitude	-9318
▁external	-9319
▁realized	-9320
rehens	-9321
▁Begin	-9322
▁raids	-9323
▁induct	-9324
▁varied	-9325
▁wealthy	-9326
▁Heritage	-9327
▁acoustic	-9328
▁assembly	-9329
▁component	-9330
▁magnitude	-9331
▁permitted	-9332
▁portrayal	-9333
▁surrendered	-9334
▁Ax	-9335
emen	-9336
▁350	-9337
▁tip	-9338
▁Lang	-9339
▁rede	-9340
▁hitting	-9341
▁publications	-9342
idal	-9343
venth	-9344
▁Deep	-9345
▁Grey	-9346
▁prev	-9347
autical	-9348
▁lemurs	-9349
▁questioned	-9350
▁Da	-9351
▁111	-9352
▁Poké	-9353
▁Publ	-9354
▁happ	-9355
▁wait	-9356
▁venue	-9357
▁parody	-9358
▁factory	-9359
▁carriers	-9360
▁concentrated	-9361
▁Anc	-9362
▁Dyn	-9363
▁Tit	-9364
hears	-9365
▁bone	-9366
enesis	-9367
▁camps	-9368
▁forth	-9369
▁Turner	-9370
▁legislature	-9371
rint	-9372
illes	-9373
▁Syria	-9374
▁steps	-9375
▁wheel	-9376
▁visits	-9377
▁reverse	-9378
▁surpass	-9379
▁discussion	-9380
uzzle	-9381
▁markets	-9382
▁attending	-9383
▁organised	-9384
▁Birmingham	-9385
▁Queensland	-9386
▁components	-9387
▁Christianity	-9388
▁169	-9389
▁forg	-9390
▁Antar	-9391
▁Cyrus	-9392
▁Season	-9393
▁casting	-9394
▁planets	-9395
rov	-9396
ghan	-9397
▁1896	-9398
▁Fish	-9399
▁armies	-9400
▁riders	-9401
▁switch	-9402
▁stationed	-9403
ugg	-9404
iden	-9405
▁154	-9406
▁Heb	-9407
▁Magn	-9408
▁Ship	-9409
▁fantasy	-9410
▁investigate	-9411
ovak	-9412
uating	-9413
▁parent	-9414
▁tenure	-9415
▁millimet	-9416
ested	-9417
▁Oslo	-9418
▁Where	-9419
▁grave	-9420
▁Donald	-9421
▁comprom	-9422
▁software	-9423
▁qualified	-9424
odox	-9425
avian	-9426
▁Hugh	-9427
▁Jama	-9428
▁Marge	-9429
▁Allies	-9430
▁spoken	-9431
▁Together	-9432
▁Indonesia	-9433
▁conservation	-9434
ethel	-9435
▁Gang	-9436
▁heading	-9437
▁withdrawal	-9438
mith	-9439
▁eval	-9440
▁plain	-9441
▁fortress	-9442
▁fill	-9443
master	-9444
▁Terry	-9445
▁mature	-9446
▁Parsons	-9447
▁putting	-9448
▁Personal	-9449
▁governments	-9450
ista	-9451
▁Pil	-9452
▁stops	-9453
▁connect	-9454
▁understood	-9455
▁promotional	-9456
▁101	-9457
aders	-9458
▁cens	-9459
▁reduction	-9460
eared	-9461
▁Must	-9462
atched	-9463
▁manga	-9464
▁veloc	-9465
igrants	-9466
▁charter	-9467
▁commentary	-9468
pled	-9469
▁disb	-9470
▁reward	-9471
▁theore	-9472
▁exercise	-9473
▁architectural	-9474
lus	-9475
▁blues	-9476
▁clock	-9477
▁continuous	-9478
▁accompanying	-9479
▁loved	-9480
▁Cameron	-9481
rose	-9482
ported	-9483
▁Steel	-9484
▁Wayne	-9485
▁endors	-9486
▁unclear	-9487
▁duration	-9488
▁Ni	-9489
▁Pic	-9490
▁Dram	-9491
▁scar	-9492
▁parks	-9493
▁assembled	-9494
itis	-9495
warf	-9496
▁Lib	-9497
▁identify	-9498
▁advertising	-9499
▁Isa	-9500
▁penet	-9501
▁output	-9502
▁Phoenix	-9503
▁Rangers	-9504
▁artificial	-9505
▁programming	-9506
▁Administration	-9507
lon	-9508
olly	-9509
▁173	-9510
▁1898	-9511
▁humor	-9512
▁decide	-9513
▁exclusively	-9514
▁organisation	-9515
▁characteristic	-9516
ulty	-9517
▁Lock	-9518
▁Norfolk	-9519
▁Village	-9520
iffs	-9521
uits	-9522
▁Bert	-9523
▁Snow	-9524
▁merely	-9525
▁phrase	-9526
etheless	-9527
▁Diamond	-9528
▁shorter	-9529
▁exposure	-9530
▁Indonesian	-9531
▁friendship	-9532
▁educational	-9533
▁quarterback	-9534
SA	-9535
▁scr	-9536
▁isot	-9537
▁Trophy	-9538
▁trough	-9539
▁stronger	-9540
car	-9541
▁Lat	-9542
▁Nev	-9543
▁unw	-9544
▁Mess	-9545
▁Nass	-9546
▁caps	-9547
▁push	-9548
▁aggreg	-9549
▁Overall	-9550
▁contribution	-9551
▁Hob	-9552
▁Schum	-9553
▁mobile	-9554
▁shares	-9555
▁Yorkshire	-9556
rastructure	-9557
▁Fu	-9558
ario	-9559
▁Dod	-9560
▁Phys	-9561
▁Stat	-9562
▁Charts	-9563
▁Dallas	-9564
▁unless	-9565
▁supplied	-9566
▁lie	-9567
agger	-9568
▁Rest	-9569
▁soph	-9570
▁drink	-9571
ean	-9572
point	-9573
▁Type	-9574
▁renov	-9575
▁Hawaii	-9576
▁bishop	-9577
▁burning	-9578
▁centers	-9579
hu	-9580
otal	-9581
▁Wag	-9582
▁nit	-9583
▁circle	-9584
▁Antonio	-9585
▁persons	-9586
▁replied	-9587
▁traveling	-9588
▁underwent	-9589
▁representatives	-9590
aja	-9591
pha	-9592
▁Stevens	-9593
▁competing	-9594
▁landscape	-9595
▁sovereign	-9596
ioc	-9597
▁NO	-9598
hard	-9599
▁Liz	-9600
▁Full	-9601
▁lock	-9602
▁mini	-9603
▁Ottawa	-9604
▁palace	-9605
▁thirteen	-9606
▁exha	-9607
apolis	-9608
▁Panzer	-9609
▁swimming	-9610
▁songwriter	-9611
▁Aer	-9612
▁Obama	-9613
▁pairs	-9614
▁ticket	-9615
▁dispers	-9616
▁offense	-9617
▁Enterprise	-9618
▁109	-9619
▁brig	-9620
▁coat	-9621
▁fram	-9622
▁corps	-9623
▁proclaim	-9624
▁Catherine	-9625
én	-9626
olia	-9627
uese	-9628
ashes	-9629
▁jury	-9630
▁Ralph	-9631
▁Herald	-9632
▁terrain	-9633
▁developers	-9634
adesh	-9635
▁Emmy	-9636
▁dece	-9637
▁tube	-9638
gomery	-9639
terbury	-9640
▁therap	-9641
▁cleared	-9642
▁samples	-9643
▁Montgomery	-9644
▁earthquake	-9645
▁improvement	-9646
▁DS	-9647
iciency	-9648
▁banned	-9649
▁metric	-9650
▁regime	-9651
▁Finally	-9652
▁branches	-9653
▁beam	-9654
▁chapel	-9655
▁Orchest	-9656
▁overwhel	-9657
▁Portuguese	-9658
▁employment	-9659
▁nat	-9660
▁worn	-9661
▁cousin	-9662
▁scores	-9663
▁Cost	-9664
▁furn	-9665
▁beats	-9666
▁promin	-9667
▁amateur	-9668
▁radical	-9669
▁Services	-9670
▁Broadcast	-9671
▁certainly	-9672
IV	-9673
▁queen	-9674
▁tested	-9675
▁imagery	-9676
▁Champions	-9677
fish	-9678
join	-9679
▁Bobby	-9680
▁Agency	-9681
▁reducing	-9682
▁Formation	-9683
▁proceeded	-9684
▁referring	-9685
▁Canterbury	-9686
onium	-9687
place	-9688
ricts	-9689
▁Cass	-9690
▁talks	-9691
▁suspic	-9692
▁extinct	-9693
▁champions	-9694
▁challenged	-9695
▁competitive	-9696
▁Sak	-9697
▁dubbed	-9698
▁exceed	-9699
▁tonnes	-9700
▁Medical	-9701
▁dressed	-9702
▁decorated	-9703
▁destroyer	-9704
▁succession	-9705
▁intervention	-9706
▁outd	-9707
▁Mayor	-9708
▁rocks	-9709
▁toured	-9710
▁Presley	-9711
▁conflic	-9712
▁dischar	-9713
▁Brothers	-9714
▁Official	-9715
▁kilogram	-9716
▁Argentina	-9717
▁RP	-9718
▁Osc	-9719
▁Wes	-9720
▁span	-9721
▁toler	-9722
▁sending	-9723
▁Napoleon	-9724
▁Aftermath	-9725
▁Got	-9726
▁Las	-9727
▁Baron	-9728
▁ballad	-9729
▁revised	-9730
▁reinforced	-9731
avor	-9732
▁Tan	-9733
▁jet	-9734
▁Burke	-9735
▁guide	-9736
▁identical	-9737
▁wrestling	-9738
▁opportunities	-9739
▁Tu	-9740
▁1895	-9741
ingham	-9742
▁Grade	-9743
▁reveal	-9744
▁Buffalo	-9745
▁confidence	-9746
ía	-9747
asks	-9748
ayan	-9749
icle	-9750
▁UEFA	-9751
▁tomb	-9752
▁Alice	-9753
▁fires	-9754
▁Market	-9755
▁colors	-9756
▁Defense	-9757
▁advised	-9758
▁cyclones	-9759
acc	-9760
▁JT	-9761
▁Equ	-9762
▁Pam	-9763
▁1850	-9764
▁Karl	-9765
▁crops	-9766
▁arguing	-9767
▁failing	-9768
ieth	-9769
ulus	-9770
▁Ins	-9771
ensed	-9772
▁Gene	-9773
▁Pruss	-9774
▁Upper	-9775
▁Rogers	-9776
▁Pokémon	-9777
▁Cer	-9778
▁Pul	-9779
▁Local	-9780
▁Communist	-9781
▁provincial	-9782
rien	-9783
soft	-9784
▁171	-9785
▁CBS	-9786
▁Eve	-9787
▁Cand	-9788
▁Half	-9789
▁fourteen	-9790
▁minority	-9791
▁considers	-9792
▁Had	-9793
▁Pad	-9794
anner	-9795
▁Edin	-9796
▁Prop	-9797
▁Yanke	-9798
▁Friday	-9799
▁warnings	-9800
oa	-9801
▁Pa	-9802
▁Fil	-9803
▁sleep	-9804
▁indeed	-9805
▁enforce	-9806
▁commanding	-9807
▁principles	-9808
▁transportation	-9809
acre	-9810
▁Sid	-9811
atever	-9812
▁valuable	-9813
▁respective	-9814
▁constitutional	-9815
▁Len	-9816
▁Sig	-9817
itely	-9818
▁Beng	-9819
▁NCAA	-9820
▁exists	-9821
▁expert	-9822
▁riding	-9823
▁arrives	-9824
▁shifted	-9825
▁Cornwall	-9826
▁survival	-9827
▁Chronicle	-9828
▁membership	-9829
▁108	-9830
▁ecc	-9831
▁Farm	-9832
▁Shin	-9833
igible	-9834
▁Saxon	-9835
▁unlik	-9836
▁sentence	-9837
▁conceived	-9838
▁interviews	-9839
▁legislative	-9840
▁167	-9841
▁Lad	-9842
▁web	-9843
▁Next	-9844
▁wish	-9845
▁Romanian	-9846
▁praising	-9847
▁practical	-9848
ét	-9849
▁Joy	-9850
▁Exper	-9851
▁Grace	-9852
▁Authority	-9853
▁radiation	-9854
▁impression	-9855
▁concentration	-9856
olen	-9857
▁rib	-9858
▁List	-9859
▁Wallace	-9860
▁drafted	-9861
enson	-9862
▁Patt	-9863
▁Stars	-9864
▁learns	-9865
▁Credits	-9866
▁Province	-9867
▁theories	-9868
▁translation	-9869
odon	-9870
annon	-9871
▁bull	-9872
rising	-9873
▁Lloyd	-9874
▁proof	-9875
▁jurisd	-9876
rod	-9877
ando	-9878
▁Pin	-9879
▁heir	-9880
▁lemur	-9881
▁reviewed	-9882
▁commenced	-9883
▁Transportation	-9884
▁Lex	-9885
▁Sin	-9886
eding	-9887
▁flows	-9888
▁spaces	-9889
▁recovery	-9890
alia	-9891
▁BCE	-9892
▁Fat	-9893
▁Fly	-9894
▁drinking	-9895
▁displaced	-9896
▁estimates	-9897
▁exclusive	-9898
▁platforms	-9899
urd	-9900
▁id	-9901
aple	-9902
racks	-9903
▁judg	-9904
porting	-9905
▁Belgian	-9906
▁daughters	-9907
▁communications	-9908
olar	-9909
vant	-9910
▁Kan	-9911
atical	-9912
▁kills	-9913
▁surve	-9914
▁uncon	-9915
▁Harvard	-9916
▁writings	-9917
▁potentially	-9918
mo	-9919
▁navy	-9920
▁spac	-9921
iously	-9922
▁GameSp	-9923
▁descent	-9924
▁extending	-9925
anian	-9926
▁faces	-9927
▁lawyer	-9928
▁rebels	-9929
▁connections	-9930
▁interpreted	-9931
lah	-9932
onica	-9933
▁Beth	-9934
▁Afghan	-9935
▁diverse	-9936
▁Training	-9937
▁medicine	-9938
▁gh	-9939
▁1899	-9940
▁Aber	-9941
▁Pink	-9942
▁ratio	-9943
▁golden	-9944
▁Liberal	-9945
▁shoulder	-9946
▁inclusion	-9947
▁multiplayer	-9948
umph	-9949
▁cler	-9950
▁Harbor	-9951
▁voices	-9952
▁boilers	-9953
▁devices	-9954
▁Pictures	-9955
roe	-9956
lete	-9957
▁Toy	-9958
▁Books	-9959
▁users	-9960
minster	-9961
▁Father	-9962
▁autumn	-9963
▁labour	-9964
▁passion	-9965
▁commanders	-9966
▁Um	-9967
▁Amb	-9968
▁Jar	-9969
▁Gray	-9970
▁cuts	-9971
▁garn	-9972
▁wire	-9973
▁rugby	-9974
▁Security	-9975
▁nautical	-9976
▁redes	-9977
oba	-9978
▁ol	-9979
lain	-9980
▁Tow	-9981
▁1897	-9982
▁Mang	-9983
▁mood	-9984
▁enthusi	-9985
▁Nicholas	-9986
▁Beginning	-9987
▁Abd	-9988
▁cyl	-9989
▁lad	-9990
▁ashore	-9991
▁towers	-9992
▁reorgan	-9993
▁trading	-9994
▁Emer	-9995
▁Sche	-9996
▁steep	-9997
▁Albany	-9998
▁Ernest	-9999
▁airline	-10000
▁prisoner	-10001
▁brilliant	-10002
▁intersects	-10003
▁Lt	-10004
▁salv	-10005
achute	-10006
istent	-10007
▁Beaut	-10008
▁sweet	-10009
▁weigh	-10010
abilities	-10011
▁attorney	-10012
tery	-10013
▁Cad	-10014
where	-10015
▁Still	-10016
▁ruler	-10017
▁fairly	-10018
▁Section	-10019
ationally	-10020
▁Richmond	-10021
▁efficient	-10022
▁disturbance	-10023
anne	-10024
▁Todd	-10025
pected	-10026
▁Gallery	-10027
▁Abu	-10028
▁Pap	-10029
▁Ref	-10030
▁Sout	-10031
▁airing	-10032
▁Edinburgh	-10033
▁Christians	-10034
III	-10035
ocol	-10036
▁Any	-10037
▁Bath	-10038
▁fest	-10039
▁abuse	-10040
▁relatives	-10041
▁relocated	-10042
oda	-10043
nels	-10044
▁Dak	-10045
▁Tai	-10046
eston	-10047
▁stuff	-10048
▁uncle	-10049
itarian	-10050
▁eating	-10051
▁handled	-10052
▁reforms	-10053
▁altitude	-10054
▁southeastern	-10055
mn	-10056
gor	-10057
osaurs	-10058
ussion	-10059
▁Dub	-10060
▁NAS	-10061
▁hind	-10062
▁tale	-10063
▁Magic	-10064
▁cable	-10065
▁Fisher	-10066
▁Cardiff	-10067
▁columns	-10068
▁transported	-10069
▁requirements	-10070
aze	-10071
▁CO	-10072
hous	-10073
▁Tax	-10074
heric	-10075
▁JTWC	-10076
▁lung	-10077
▁Israeli	-10078
▁courses	-10079
▁Jennings	-10080
itate	-10081
▁Link	-10082
▁Malt	-10083
▁Minor	-10084
▁valid	-10085
▁victim	-10086
▁wonder	-10087
▁interaction	-10088
▁maintaining	-10089
▁102	-10090
▁Fitz	-10091
▁Orle	-10092
▁loyal	-10093
▁spawn	-10094
▁Austin	-10095
tz	-10096
▁Inv	-10097
▁Neb	-10098
▁Darwin	-10099
▁Impact	-10100
▁patients	-10101
▁profession	-10102
▁participation	-10103
izer	-10104
▁Mix	-10105
▁Stef	-10106
▁recept	-10107
▁sacrif	-10108
▁districts	-10109
▁approaches	-10110
akh	-10111
lem	-10112
▁Clar	-10113
▁recon	-10114
▁displays	-10115
▁unlikely	-10116
▁universal	-10117
andom	-10118
▁Midd	-10119
▁Scar	-10120
▁dict	-10121
▁nurs	-10122
▁rect	-10123
▁melody	-10124
▁Officer	-10125
▁Without	-10126
▁petition	-10127
▁Tig	-10128
▁fulf	-10129
instein	-10130
▁Harold	-10131
▁Cricket	-10132
▁charted	-10133
hum	-10134
▁fisher	-10135
▁carries	-10136
▁lasting	-10137
▁civilians	-10138
▁followers	-10139
▁translated	-10140
▁See	-10141
▁Hull	-10142
▁obsc	-10143
aching	-10144
▁Eight	-10145
▁morph	-10146
▁sixteen	-10147
▁tension	-10148
▁proposals	-10149
▁withdrawn	-10150
▁significance	-10151
osy	-10152
angel	-10153
▁Energy	-10154
iper	-10155
▁Sud	-10156
▁Tib	-10157
▁Azer	-10158
▁Mand	-10159
▁Mans	-10160
▁graduate	-10161
▁Cathedral	-10162
▁Democrats	-10163
ublin	-10164
▁fold	-10165
▁confusion	-10166
▁processes	-10167
▁categories	-10168
▁destroying	-10169
▁demo	-10170
▁moon	-10171
▁Brooks	-10172
▁liquid	-10173
▁blocked	-10174
▁rehears	-10175
▁Sac	-10176
▁drag	-10177
▁Maced	-10178
▁restore	-10179
urricanes	-10180
▁lighting	-10181
▁velocity	-10182
▁Description	-10183
▁photographs	-10184
aba	-10185
encer	-10186
▁quad	-10187
▁ward	-10188
▁shock	-10189
▁batted	-10190
▁accurate	-10191
▁AA	-10192
lane	-10193
▁mit	-10194
ensis	-10195
▁tours	-10196
▁accord	-10197
▁answer	-10198
▁Product	-10199
▁Orchestra	-10200
▁preparing	-10201
agles	-10202
merce	-10203
▁shallow	-10204
▁protests	-10205
▁vulnerable	-10206
▁implemented	-10207
uto	-10208
rift	-10209
seud	-10210
▁121	-10211
umped	-10212
▁Mission	-10213
▁Airlines	-10214
vet	-10215
▁fasc	-10216
▁Jerry	-10217
▁Omaha	-10218
▁Wells	-10219
▁Danish	-10220
▁Peters	-10221
▁distant	-10222
▁recurring	-10223
▁qualifying	-10224
▁Env	-10225
▁Ori	-10226
▁ing	-10227
▁1889	-10228
▁Punk	-10229
▁fate	-10230
hill	-10231
eness	-10232
isive	-10233
▁Mind	-10234
▁tort	-10235
▁Danny	-10236
▁Woman	-10237
▁taxes	-10238
▁culmin	-10239
▁summit	-10240
▁Greatest	-10241
▁challenges	-10242
▁presentation	-10243
uez	-10244
▁153	-10245
▁upset	-10246
legraph	-10247
▁Invest	-10248
▁Studio	-10249
▁emotion	-10250
▁tactics	-10251
▁explicit	-10252
pler	-10253
▁answ	-10254
▁summ	-10255
▁hybrid	-10256
▁myster	-10257
▁Orleans	-10258
▁Schumacher	-10259
▁diplomatic	-10260
rob	-10261
▁Prix	-10262
▁craft	-10263
▁error	-10264
▁Boeing	-10265
▁salary	-10266
▁rescued	-10267
▁principle	-10268
▁settlements	-10269
▁1894	-10270
▁Stri	-10271
▁bath	-10272
▁Comedy	-10273
▁castles	-10274
▁harbour	-10275
▁traditions	-10276
fly	-10277
▁135	-10278
▁Sug	-10279
▁legit	-10280
▁paras	-10281
▁lights	-10282
▁Finland	-10283
▁Richardson	-10284
▁Ga	-10285
▁Cov	-10286
▁mal	-10287
▁Mond	-10288
▁skill	-10289
▁Irving	-10290
▁funded	-10291
▁medals	-10292
▁divorce	-10293
aton	-10294
raud	-10295
▁158	-10296
▁1891	-10297
▁Prim	-10298
▁Side	-10299
▁trick	-10300
▁indigenous	-10301
▁experiments	-10302
▁researchers	-10303
▁infrastructure	-10304
ovic	-10305
▁FBI	-10306
▁Nad	-10307
▁Sic	-10308
▁Olivia	-10309
▁Pierre	-10310
▁statue	-10311
▁proteins	-10312
▁surprised	-10313
▁applications	-10314
▁similarities	-10315
mi	-10316
owski	-10317
▁1892	-10318
▁cards	-10319
▁cabinet	-10320
▁physics	-10321
▁proportion	-10322
▁essentially	-10323
▁ho	-10324
▁Ches	-10325
▁empire	-10326
▁warfare	-10327
▁commenting	-10328
run	-10329
aping	-10330
▁Actor	-10331
▁eleph	-10332
▁filmm	-10333
▁inhab	-10334
▁Edition	-10335
▁Manning	-10336
▁thunder	-10337
▁watershed	-10338
▁girlfriend	-10339
▁unexpected	-10340
▁Performance	-10341
cru	-10342
angle	-10343
▁Mega	-10344
▁Salt	-10345
▁Athens	-10346
▁Orange	-10347
▁evident	-10348
▁segments	-10349
▁Microsoft	-10350
▁sponsored	-10351
▁pel	-10352
▁1861	-10353
▁knee	-10354
▁Leigh	-10355
▁Liter	-10356
▁deeply	-10357
▁manage	-10358
▁explaining	-10359
▁Il	-10360
▁Mosc	-10361
▁Zero	-10362
▁gene	-10363
▁Oklah	-10364
▁admin	-10365
▁drown	-10366
▁Dublin	-10367
▁Wonder	-10368
▁merged	-10369
▁signature	-10370
▁variation	-10371
▁accommodate	-10372
▁extensively	-10373
▁observation	-10374
▁participants	-10375
berry	-10376
▁Hold	-10377
▁Based	-10378
▁Prest	-10379
lington	-10380
▁photography	-10381
▁Blu	-10382
▁RBI	-10383
▁leaf	-10384
reated	-10385
▁assum	-10386
▁sings	-10387
▁locally	-10388
▁editions	-10389
▁representation	-10390
▁Fern	-10391
▁rice	-10392
▁dense	-10393
▁revolt	-10394
▁Constantine	-10395
sts	-10396
oded	-10397
▁tel	-10398
▁1800	-10399
▁Priv	-10400
▁conj	-10401
▁Micha	-10402
▁catal	-10403
▁Duncan	-10404
▁compound	-10405
▁Ib	-10406
▁absent	-10407
▁wished	-10408
▁clothes	-10409
▁numbered	-10410
▁communist	-10411
▁sentenced	-10412
▁squadrons	-10413
▁concurrent	-10414
utor	-10415
▁polar	-10416
▁streak	-10417
ellation	-10418
asm	-10419
▁MS	-10420
▁Din	-10421
▁sin	-10422
▁1000	-10423
▁Joan	-10424
▁Maine	-10425
▁hills	-10426
▁tribe	-10427
ancellor	-10428
ni	-10429
nt	-10430
beat	-10431
eded	-10432
gett	-10433
uras	-10434
▁dim	-10435
▁embr	-10436
▁oblig	-10437
▁crimes	-10438
▁hostile	-10439
▁Electric	-10440
▁counterp	-10441
▁eventual	-10442
▁112	-10443
▁161	-10444
▁Poly	-10445
▁Vers	-10446
▁glac	-10447
▁drain	-10448
▁debris	-10449
▁Montana	-10450
▁holiday	-10451
▁Cultural	-10452
▁advertis	-10453
▁consolid	-10454
cha	-10455
haw	-10456
▁Wii	-10457
▁Luft	-10458
▁helps	-10459
▁Davies	-10460
▁Sultan	-10461
▁rivalry	-10462
▁receives	-10463
▁Conservation	-10464
da	-10465
▁Kaz	-10466
▁Ted	-10467
acles	-10468
▁Hait	-10469
▁Hope	-10470
▁Falls	-10471
▁beneath	-10472
▁devoted	-10473
▁imprisoned	-10474
▁statistics	-10475
▁sav	-10476
▁Hanc	-10477
▁prox	-10478
▁Apoll	-10479
▁conce	-10480
▁equally	-10481
▁heritage	-10482
▁grandfather	-10483
▁Vo	-10484
▁Bud	-10485
▁Nept	-10486
formula	-10487
▁gender	-10488
▁Tribune	-10489
▁educated	-10490
▁garnered	-10491
▁cathedral	-10492
ATO	-10493
▁Kl	-10494
▁aft	-10495
piece	-10496
▁Quar	-10497
▁unve	-10498
alling	-10499
▁Globe	-10500
▁portr	-10501
▁shale	-10502
ometric	-10503
▁dealing	-10504
▁Oklahoma	-10505
iga	-10506
iler	-10507
▁mush	-10508
▁march	-10509
▁rings	-10510
▁breaks	-10511
▁lifetime	-10512
▁variable	-10513
▁prototype	-10514
feld	-10515
rene	-10516
▁Meg	-10517
▁ages	-10518
▁loud	-10519
▁Stein	-10520
isition	-10521
▁beating	-10522
▁Adventure	-10523
▁corporate	-10524
▁competitions	-10525
imm	-10526
▁AP	-10527
▁Tak	-10528
▁vig	-10529
▁Until	-10530
▁blind	-10531
▁eagle	-10532
▁marine	-10533
▁priest	-10534
▁sailing	-10535
▁Register	-10536
▁Constantin	-10537
ource	-10538
▁Fighter	-10539
▁flowers	-10540
▁EC	-10541
▁Icel	-10542
▁gods	-10543
▁Madison	-10544
▁Chet	-10545
▁Past	-10546
▁fame	-10547
levard	-10548
▁conven	-10549
▁grossing	-10550
▁agriculture	-10551
assed	-10552
icles	-10553
▁Alam	-10554
castle	-10555
▁Stuart	-10556
▁supern	-10557
▁Cyclone	-10558
▁Regional	-10559
▁handling	-10560
unge	-10561
▁Saw	-10562
imony	-10563
ocket	-10564
▁dogs	-10565
itious	-10566
lights	-10567
▁Bryan	-10568
▁juven	-10569
▁barrel	-10570
▁Symphony	-10571
▁Metropolitan	-10572
▁220	-10573
▁Winn	-10574
▁mate	-10575
▁Hughes	-10576
▁beaten	-10577
▁borrow	-10578
▁revival	-10579
▁reactions	-10580
▁statements	-10581
affe	-10582
ubble	-10583
▁laugh	-10584
▁bomber	-10585
▁Hancock	-10586
▁provinces	-10587
▁conspiracy	-10588
▁PS	-10589
erver	-10590
▁Camb	-10591
▁Stra	-10592
▁metre	-10593
▁assert	-10594
▁Iceland	-10595
▁pursued	-10596
ocal	-10597
▁Bark	-10598
▁Chem	-10599
▁Athen	-10600
▁virus	-10601
▁Bright	-10602
restrial	-10603
▁Attorney	-10604
▁Executive	-10605
▁documented	-10606
cut	-10607
▁Hood	-10608
▁Neil	-10609
▁dozen	-10610
▁noble	-10611
▁voyage	-10612
▁uranium	-10613
▁considerably	-10614
▁traditionally	-10615
ME	-10616
oca	-10617
▁Ze	-10618
▁genu	-10619
▁Movie	-10620
▁manip	-10621
▁sword	-10622
▁Guinea	-10623
▁Thames	-10624
▁marking	-10625
▁persuaded	-10626
▁Yam	-10627
otion	-10628
▁fert	-10629
▁chore	-10630
▁tooth	-10631
▁Gothic	-10632
▁Barbara	-10633
▁beliefs	-10634
▁options	-10635
▁elaborate	-10636
wing	-10637
▁Kate	-10638
▁urged	-10639
▁Nature	-10640
▁rejoin	-10641
▁tasked	-10642
▁Century	-10643
▁boundaries	-10644
▁Ec	-10645
▁156	-10646
izard	-10647
▁Manu	-10648
keeper	-10649
▁Leeds	-10650
▁rains	-10651
▁tracked	-10652
▁escorted	-10653
▁intermedi	-10654
▁occurring	-10655
▁Eddie	-10656
▁aside	-10657
▁Paraly	-10658
▁depicts	-10659
▁patient	-10660
▁oriented	-10661
▁batteries	-10662
uy	-10663
▁mud	-10664
▁sulf	-10665
ulsion	-10666
▁dread	-10667
▁innoc	-10668
▁Johann	-10669
▁drummer	-10670
oom	-10671
▁au	-10672
▁Kon	-10673
▁fed	-10674
▁Chel	-10675
▁Pete	-10676
▁swit	-10677
▁Serge	-10678
▁Cemetery	-10679
▁discontin	-10680
▁Ah	-10681
aters	-10682
ipher	-10683
uters	-10684
amount	-10685
▁Start	-10686
▁hopes	-10687
▁hoping	-10688
▁opposing	-10689
▁conflicts	-10690
▁monastery	-10691
▁Environment	-10692
▁Face	-10693
▁Luke	-10694
▁Bible	-10695
▁dimin	-10696
▁Junior	-10697
▁decrease	-10698
▁structural	-10699
▁Ta	-10700
ashi	-10701
▁Hog	-10702
utter	-10703
▁Clay	-10704
▁Jake	-10705
▁ties	-10706
▁Guild	-10707
▁census	-10708
▁housed	-10709
▁judges	-10710
▁predators	-10711
▁recruited	-10712
▁fab	-10713
▁dual	-10714
▁gift	-10715
▁nerv	-10716
erness	-10717
▁Geoff	-10718
▁ferry	-10719
▁stern	-10720
▁accessible	-10721
▁concerning	-10722
▁territorial	-10723
Hg	-10724
pine	-10725
▁Rio	-10726
▁Fact	-10727
erg	-10728
▁Judge	-10729
▁Susan	-10730
▁apply	-10731
▁dying	-10732
▁manif	-10733
▁sized	-10734
▁thrown	-10735
▁163	-10736
▁Gor	-10737
▁Caes	-10738
▁Owen	-10739
▁Rena	-10740
▁Robin	-10741
▁contend	-10742
▁pitcher	-10743
▁renewed	-10744
▁Paralymp	-10745
▁benefits	-10746
ahl	-10747
iang	-10748
▁240	-10749
▁TNA	-10750
▁fee	-10751
icing	-10752
▁Celt	-10753
▁forb	-10754
▁kidn	-10755
▁empty	-10756
▁smoke	-10757
▁disorder	-10758
▁embarked	-10759
▁mythology	-10760
▁Eff	-10761
▁YouT	-10762
▁acre	-10763
▁Joint	-10764
▁Place	-10765
▁Gibson	-10766
▁Legisl	-10767
▁suddenly	-10768
▁advancing	-10769
▁requiring	-10770
▁Eth	-10771
arity	-10772
icism	-10773
inery	-10774
▁beauty	-10775
▁crashed	-10776
▁conquest	-10777
▁virtually	-10778
▁Protestant	-10779
eto	-10780
olt	-10781
inge	-10782
▁113	-10783
▁mos	-10784
▁Fran	-10785
▁cash	-10786
▁trunk	-10787
▁naming	-10788
▁Marshal	-10789
▁YouTube	-10790
▁knocked	-10791
▁sustain	-10792
▁resolved	-10793
▁particles	-10794
▁impressive	-10795
erts	-10796
▁145	-10797
▁Gas	-10798
rific	-10799
▁Cond	-10800
usalem	-10801
▁Tourn	-10802
▁Nevada	-10803
▁gaining	-10804
▁horizont	-10805
▁quarters	-10806
▁terminal	-10807
▁separation	-10808
▁MI	-10809
▁Cany	-10810
▁scre	-10811
▁posts	-10812
▁handle	-10813
▁lighter	-10814
▁anticipated	-10815
▁celebration	-10816
GM	-10817
osph	-10818
▁JNA	-10819
▁Pas	-10820
▁cinema	-10821
▁tissue	-10822
▁Holland	-10823
▁veteran	-10824
▁involves	-10825
▁pregnant	-10826
▁produces	-10827
▁occasional	-10828
▁politicians	-10829
yd	-10830
▁Case	-10831
▁Chop	-10832
▁Kill	-10833
boards	-10834
enberg	-10835
▁bears	-10836
▁taste	-10837
▁Alaska	-10838
▁timber	-10839
▁Jerusalem	-10840
▁addressed	-10841
TS	-10842
▁Pi	-10843
stan	-10844
rogen	-10845
▁zero	-10846
▁Malaysia	-10847
▁favourite	-10848
▁suspected	-10849
▁Management	-10850
▁Operations	-10851
▁travelling	-10852
atem	-10853
wald	-10854
▁guy	-10855
▁Evil	-10856
▁racial	-10857
chi	-10858
unning	-10859
▁feared	-10860
▁Collins	-10861
▁Gregory	-10862
▁trapped	-10863
▁disappeared	-10864
▁Nas	-10865
▁Room	-10866
rolled	-10867
▁Burns	-10868
▁random	-10869
▁studying	-10870
▁collaborated	-10871
▁Emma	-10872
▁blend	-10873
▁noise	-10874
▁collections	-10875
▁illustrated	-10876
ench	-10877
▁stim	-10878
▁Mills	-10879
▁closure	-10880
▁confirm	-10881
▁weakening	-10882
▁screenplay	-10883
HL	-10884
▁Vel	-10885
aiden	-10886
▁Bour	-10887
▁boot	-10888
igious	-10889
▁prest	-10890
▁Affairs	-10891
▁Cavalry	-10892
▁upcoming	-10893
▁capturing	-10894
omed	-10895
ellar	-10896
isons	-10897
▁styl	-10898
▁wine	-10899
▁dwarf	-10900
ocation	-10901
▁abroad	-10902
▁decomp	-10903
▁mixing	-10904
▁colours	-10905
▁rendered	-10906
▁authorized	-10907
rews	-10908
▁Sox	-10909
ridor	-10910
▁Duch	-10911
thodox	-10912
▁liner	-10913
▁truly	-10914
changed	-10915
▁cattle	-10916
eps	-10917
▁ERA	-10918
▁Kub	-10919
osion	-10920
▁Mult	-10921
▁fier	-10922
▁Adela	-10923
▁exile	-10924
▁toxic	-10925
▁mounts	-10926
▁rivals	-10927
▁avoided	-10928
▁pursuit	-10929
▁strikes	-10930
▁Armenian	-10931
▁circular	-10932
ulum	-10933
▁cow	-10934
onial	-10935
▁FIFA	-10936
▁spar	-10937
cester	-10938
▁infer	-10939
▁reass	-10940
▁breast	-10941
▁promise	-10942
▁sinking	-10943
▁highlighted	-10944
▁manufacturing	-10945
dess	-10946
▁159	-10947
▁urg	-10948
▁Oscar	-10949
▁Shield	-10950
▁butter	-10951
▁stolen	-10952
▁Jefferson	-10953
▁accidentally	-10954
eff	-10955
occ	-10956
flow	-10957
▁Ord	-10958
arest	-10959
▁Devil	-10960
▁Eagle	-10961
▁vital	-10962
▁Fourth	-10963
▁Brooklyn	-10964
Ne	-10965
▁Vl	-10966
▁Beh	-10967
igger	-10968
▁dust	-10969
▁flown	-10970
▁rever	-10971
star	-10972
▁incom	-10973
▁opens	-10974
▁Spider	-10975
▁compiled	-10976
▁vicinity	-10977
▁commercially	-10978
▁maps	-10979
ailing	-10980
▁Madrid	-10981
▁Tucker	-10982
▁Wagner	-10983
▁orange	-10984
▁explore	-10985
rooms	-10986
▁verte	-10987
▁mixture	-10988
▁Michaels	-10989
▁conversation	-10990
▁Meteorological	-10991
▁Gon	-10992
▁Mall	-10993
▁fron	-10994
▁doors	-10995
▁lyrical	-10996
▁Charlotte	-10997
▁Princeton	-10998
▁chemistry	-10999
izz	-11000
▁lib	-11001
▁Larry	-11002
▁Woods	-11003
▁sugar	-11004
▁imposed	-11005
▁remembered	-11006
▁bombardment	-11007
bes	-11008
net	-11009
▁Syn	-11010
▁cook	-11011
▁navig	-11012
▁operates	-11013
▁Brazilian	-11014
▁suspension	-11015
▁volunteers	-11016
▁universities	-11017
auc	-11018
gans	-11019
omon	-11020
backs	-11021
▁Code	-11022
▁Flow	-11023
▁aest	-11024
▁logo	-11025
▁seas	-11026
▁hyper	-11027
▁Canyon	-11028
▁sharks	-11029
▁asserted	-11030
▁relation	-11031
▁complained	-11032
othy	-11033
▁Ent	-11034
▁pap	-11035
etary	-11036
▁flex	-11037
▁spur	-11038
▁facil	-11039
angular	-11040
▁Others	-11041
▁linear	-11042
▁colored	-11043
▁consciousness	-11044
▁Eis	-11045
▁1864	-11046
▁Bears	-11047
▁therm	-11048
▁examination	-11049
▁intellectual	-11050
rh	-11051
ijing	-11052
▁Bass	-11053
▁tune	-11054
▁Isaac	-11055
▁Trade	-11056
▁gardens	-11057
▁thereby	-11058
▁releasing	-11059
▁sentiment	-11060
cks	-11061
▁Zone	-11062
▁hosp	-11063
▁Liberty	-11064
▁villain	-11065
▁feathers	-11066
▁offshore	-11067
acer	-11068
lett	-11069
olan	-11070
omys	-11071
▁Ages	-11072
▁epic	-11073
icking	-11074
▁Parks	-11075
▁Wings	-11076
▁Apollo	-11077
▁focuses	-11078
▁Independence	-11079
▁restrictions	-11080
sa	-11081
▁162	-11082
▁Hus	-11083
onnie	-11084
▁Take	-11085
▁clergy	-11086
▁dinner	-11087
▁cartoon	-11088
▁murdered	-11089
▁depicting	-11090
▁Agu	-11091
▁inHg	-11092
▁Watch	-11093
▁voting	-11094
▁Weather	-11095
▁prosper	-11096
▁stretch	-11097
▁laboratory	-11098
▁NS	-11099
▁cu	-11100
▁enabled	-11101
▁formula	-11102
▁organic	-11103
▁scandal	-11104
▁biography	-11105
▁inherited	-11106
▁encounters	-11107
▁nut	-11108
▁une	-11109
▁1865	-11110
▁1888	-11111
▁Monroe	-11112
▁Normandy	-11113
▁preserve	-11114
▁DJ	-11115
oirs	-11116
roat	-11117
oples	-11118
▁Bask	-11119
▁Voice	-11120
▁Ground	-11121
▁marched	-11122
▁Athletic	-11123
▁Churchill	-11124
▁dependent	-11125
ön	-11126
uri	-11127
▁Krist	-11128
▁chase	-11129
▁Musical	-11130
▁portrait	-11131
▁decreased	-11132
▁progressed	-11133
asi	-11134
▁Pay	-11135
▁Crus	-11136
overed	-11137
▁Draft	-11138
▁warned	-11139
▁threats	-11140
▁Newcastle	-11141
▁variations	-11142
bai	-11143
nan	-11144
uli	-11145
▁RI	-11146
rior	-11147
orted	-11148
▁jack	-11149
▁Youth	-11150
▁mouse	-11151
▁inducted	-11152
▁supports	-11153
▁positively	-11154
▁explanation	-11155
chw	-11156
▁Eg	-11157
▁107	-11158
itime	-11159
▁Opera	-11160
▁elite	-11161
▁links	-11162
▁Hunter	-11163
▁targeted	-11164
▁attraction	-11165
▁politician	-11166
▁Heavyweight	-11167
oths	-11168
ught	-11169
▁Shan	-11170
escope	-11171
▁Quest	-11172
▁Tracy	-11173
▁Baltic	-11174
▁Career	-11175
▁Strong	-11176
▁directing	-11177
▁consumption	-11178
▁Und	-11179
▁Vic	-11180
▁eld	-11181
▁isn	-11182
▁les	-11183
▁mad	-11184
umbered	-11185
▁guests	-11186
▁Beijing	-11187
▁Laboratory	-11188
▁provisions	-11189
▁reconstruction	-11190
inz	-11191
ulates	-11192
▁Castro	-11193
▁Ronald	-11194
▁speeds	-11195
▁invaded	-11196
▁sculpture	-11197
▁114	-11198
opard	-11199
▁1877	-11200
▁Cant	-11201
▁Kyle	-11202
▁ghost	-11203
▁constantly	-11204
abet	-11205
anim	-11206
▁Spit	-11207
▁Tree	-11208
▁Vern	-11209
▁Chang	-11210
▁confident	-11211
▁expanding	-11212
▁infection	-11213
gé	-11214
▁fo	-11215
▁sel	-11216
▁Meth	-11217
▁Tint	-11218
▁root	-11219
▁Villa	-11220
▁dislik	-11221
▁exhibit	-11222
▁lawsuit	-11223
▁varying	-11224
▁playable	-11225
▁Territory	-11226
▁boyfriend	-11227
▁complicated	-11228
▁jurisdiction	-11229
▁Alt	-11230
ritic	-11231
▁amph	-11232
▁grid	-11233
▁Plant	-11234
entieth	-11235
▁Filming	-11236
▁presents	-11237
▁evacuation	-11238
ema	-11239
mans	-11240
oria	-11241
▁126	-11242
▁Kam	-11243
▁Brid	-11244
▁Flore	-11245
▁creek	-11246
▁Middles	-11247
▁customers	-11248
nda	-11249
hend	-11250
▁Fur	-11251
▁Kil	-11252
▁hence	-11253
▁resid	-11254
▁Barcel	-11255
▁Rivers	-11256
▁costume	-11257
▁possess	-11258
▁warships	-11259
▁diversity	-11260
agi	-11261
▁Has	-11262
▁Rif	-11263
quiry	-11264
▁Scots	-11265
▁Waters	-11266
▁touchdowns	-11267
▁Sex	-11268
assing	-11269
▁Ghost	-11270
▁Guards	-11271
▁gentle	-11272
▁runner	-11273
▁Azerbai	-11274
▁missile	-11275
▁realistic	-11276
▁lift	-11277
▁Metac	-11278
▁coron	-11279
▁patri	-11280
▁McCain	-11281
▁Pierce	-11282
▁Report	-11283
▁cotton	-11284
▁easier	-11285
▁Studies	-11286
▁faculty	-11287
▁absorbed	-11288
▁Collection	-11289
▁disappointed	-11290
▁Constantinople	-11291
isan	-11292
▁Dre	-11293
▁fox	-11294
iture	-11295
▁plum	-11296
▁Tests	-11297
▁photo	-11298
▁Adelaide	-11299
▁biological	-11300
▁undertaken	-11301
▁independently	-11302
▁Ce	-11303
▁NATO	-11304
▁Sean	-11305
▁apolog	-11306
▁Morning	-11307
▁Picture	-11308
▁Tournament	-11309
▁Hom	-11310
eling	-11311
▁atop	-11312
▁pill	-11313
▁plug	-11314
▁boost	-11315
▁swing	-11316
▁Justin	-11317
▁comics	-11318
▁entert	-11319
▁viewing	-11320
▁convicted	-11321
▁processing	-11322
▁outstanding	-11323
ci	-11324
▁138	-11325
Brien	-11326
▁Isle	-11327
▁Jose	-11328
▁Altern	-11329
▁afford	-11330
▁Marines	-11331
▁lacking	-11332
▁Senators	-11333
▁rotation	-11334
▁organisms	-11335
▁distinction	-11336
▁fundamental	-11337
iman	-11338
rium	-11339
▁Saf	-11340
agers	-11341
ramid	-11342
▁memb	-11343
▁releg	-11344
▁layers	-11345
▁stones	-11346
▁Bradley	-11347
▁Members	-11348
▁Typhoon	-11349
▁Boulevard	-11350
▁threatening	-11351
▁predominantly	-11352
ín	-11353
▁fossils	-11354
▁contacted	-11355
▁suggestion	-11356
▁southwestern	-11357
BO	-11358
uka	-11359
▁AT	-11360
cott	-11361
odia	-11362
oids	-11363
▁Rus	-11364
▁vow	-11365
▁Glee	-11366
▁Trav	-11367
ortion	-11368
▁Fight	-11369
▁Lower	-11370
▁choir	-11371
▁verses	-11372
▁Fleming	-11373
▁Jamaica	-11374
▁Alliance	-11375
▁canceled	-11376
▁nickname	-11377
▁ib	-11378
▁1885	-11379
▁Curt	-11380
▁fles	-11381
overty	-11382
▁Action	-11383
▁Harper	-11384
▁Moscow	-11385
▁remote	-11386
▁mammals	-11387
▁teammate	-11388
▁af	-11389
ouch	-11390
umble	-11391
▁McCar	-11392
▁Winds	-11393
▁balls	-11394
▁tempo	-11395
landers	-11396
▁Chapel	-11397
▁Edmund	-11398
▁noticed	-11399
▁Cardinals	-11400
▁promoting	-11401
▁attachment	-11402
▁Republicans	-11403
ju	-11404
▁Bapt	-11405
▁wake	-11406
heimer	-11407
▁Break	-11408
▁Patri	-11409
▁amino	-11410
▁revolutionary	-11411
▁118	-11412
▁Malay	-11413
▁450	-11414
▁Voy	-11415
▁tap	-11416
▁1863	-11417
▁Aren	-11418
▁fant	-11419
▁hole	-11420
▁ramp	-11421
▁Traff	-11422
▁wound	-11423
▁conced	-11424
▁quoted	-11425
▁Control	-11426
▁Historical	-11427
▁challenging	-11428
▁autobiography	-11429
▁José	-11430
▁touc	-11431
monton	-11432
▁enorm	-11433
▁Nathan	-11434
▁darker	-11435
▁tourist	-11436
▁rational	-11437
▁positioned	-11438
▁developments	-11439
▁thunderstorm	-11440
elta	-11441
hall	-11442
▁Rav	-11443
▁por	-11444
▁sor	-11445
limin	-11446
▁Ferr	-11447
▁Gree	-11448
artime	-11449
wright	-11450
▁Chester	-11451
▁archaeological	-11452
fr	-11453
asury	-11454
ielder	-11455
▁Chair	-11456
▁grows	-11457
▁remin	-11458
▁Springs	-11459
▁humanity	-11460
▁steadily	-11461
▁Amendment	-11462
▁Barcelona	-11463
▁contracts	-11464
▁reporting	-11465
WA	-11466
len	-11467
lined	-11468
▁Mick	-11469
▁grap	-11470
▁knows	-11471
▁throwing	-11472
▁speculation	-11473
eda	-11474
esh	-11475
▁CM	-11476
auna	-11477
▁nep	-11478
music	-11479
▁angry	-11480
▁spots	-11481
▁genres	-11482
▁armoured	-11483
▁interven	-11484
▁situations	-11485
nam	-11486
ework	-11487
istle	-11488
onsin	-11489
▁Wisc	-11490
▁marg	-11491
▁Lynch	-11492
▁flour	-11493
▁Assist	-11494
▁lengths	-11495
▁eastward	-11496
▁enhanced	-11497
▁ordinary	-11498
▁hypothesis	-11499
▁MV	-11500
▁gif	-11501
▁acids	-11502
▁creature	-11503
▁removing	-11504
▁thorough	-11505
▁calculated	-11506
▁fortifications	-11507
▁Lud	-11508
▁1862	-11509
▁Pros	-11510
▁tools	-11511
▁Against	-11512
▁lakes	-11513
▁troop	-11514
▁Inside	-11515
▁detect	-11516
▁creatures	-11517
▁pm	-11518
olars	-11519
▁tape	-11520
▁Helen	-11521
▁Norse	-11522
▁Riley	-11523
▁Snake	-11524
▁liver	-11525
osexual	-11526
itic	-11527
▁Wel	-11528
▁perc	-11529
▁pref	-11530
alties	-11531
▁Chile	-11532
▁Tintin	-11533
▁paying	-11534
▁studios	-11535
▁preceding	-11536
▁Wellington	-11537
▁Westminster	-11538
▁Garc	-11539
▁Pant	-11540
▁mild	-11541
▁Colin	-11542
▁arose	-11543
regular	-11544
▁Hearts	-11545
▁Ancient	-11546
▁dancers	-11547
▁Portugal	-11548
▁cemetery	-11549
▁constitu	-11550
▁compositions	-11551
▁Mak	-11552
▁Body	-11553
▁Insp	-11554
▁arena	-11555
▁Future	-11556
▁Yankees	-11557
▁inaugural	-11558
▁assassination	-11559
mel	-11560
cock	-11561
▁Rab	-11562
rible	-11563
▁pink	-11564
otypes	-11565
▁Branch	-11566
▁shelter	-11567
▁tickets	-11568
▁machines	-11569
▁magnetic	-11570
▁Ach	-11571
asaki	-11572
found	-11573
▁bore	-11574
▁merc	-11575
▁Pedro	-11576
▁Taiwan	-11577
▁Destiny	-11578
▁sharing	-11579
▁Northwest	-11580
▁disbanded	-11581
▁telephone	-11582
DA	-11583
iors	-11584
▁1876	-11585
▁Days	-11586
▁mail	-11587
▁Vegas	-11588
▁Things	-11589
▁couldn	-11590
▁honors	-11591
▁Friends	-11592
▁Edmonton	-11593
▁Wisconsin	-11594
▁peninsula	-11595
▁championships	-11596
ER	-11597
▁LP	-11598
cour	-11599
▁157	-11600
▁Hok	-11601
▁Occ	-11602
▁Chad	-11603
▁Verm	-11604
inated	-11605
▁Malta	-11606
▁Shiva	-11607
▁Arabian	-11608
▁trailer	-11609
umberland	-11610
▁concepts	-11611
▁battlecru	-11612
▁celebrate	-11613
ré	-11614
oker	-11615
▁odd	-11616
▁Gates	-11617
▁swept	-11618
▁pleased	-11619
▁relieved	-11620
▁mechanism	-11621
▁retreated	-11622
▁helicopter	-11623
▁corresponding	-11624
▁Dud	-11625
anche	-11626
arded	-11627
icken	-11628
▁Spirit	-11629
▁ascend	-11630
▁ignored	-11631
▁continental	-11632
▁echo	-11633
▁Butler	-11634
▁deputy	-11635
▁recruit	-11636
▁initiative	-11637
gus	-11638
endar	-11639
hurst	-11640
▁laps	-11641
▁Guatem	-11642
▁centered	-11643
▁managing	-11644
▁kilometers	-11645
▁Revolutionary	-11646
▁Arc	-11647
izers	-11648
▁Hubb	-11649
▁monit	-11650
▁Actress	-11651
▁Newport	-11652
▁roadway	-11653
▁detected	-11654
▁defenders	-11655
aird	-11656
▁117	-11657
▁978	-11658
cliff	-11659
▁Coal	-11660
▁Epis	-11661
acking	-11662
▁Belle	-11663
▁opined	-11664
▁Parkway	-11665
▁romance	-11666
▁confused	-11667
▁torpedoes	-11668
▁vegetation	-11669
▁historically	-11670
▁Representatives	-11671
avan	-11672
▁Tas	-11673
stown	-11674
▁Cinc	-11675
▁Kang	-11676
▁beer	-11677
aneous	-11678
ennial	-11679
▁lover	-11680
▁Kenneth	-11681
▁emerging	-11682
▁awareness	-11683
▁insurance	-11684
▁ceremonies	-11685
▁industries	-11686
▁LS	-11687
neum	-11688
▁Jur	-11689
▁Von	-11690
acular	-11691
▁optim	-11692
▁Wolver	-11693
▁rocket	-11694
▁thanks	-11695
▁Theater	-11696
▁onwards	-11697
▁connects	-11698
quer	-11699
▁Kid	-11700
leted	-11701
▁1866	-11702
▁Halo	-11703
▁Surv	-11704
▁Unit	-11705
▁cosm	-11706
▁harsh	-11707
▁Comics	-11708
▁breeds	-11709
▁contrad	-11710
▁engineers	-11711
▁Organization	-11712
▁SN	-11713
elia	-11714
▁Burg	-11715
▁Round	-11716
▁gates	-11717
▁desper	-11718
▁varies	-11719
▁license	-11720
▁partners	-11721
▁priority	-11722
▁substitute	-11723
ilda	-11724
lake	-11725
▁nose	-11726
▁summon	-11727
▁themed	-11728
▁parking	-11729
▁stability	-11730
eches	-11731
▁Hunt	-11732
▁bars	-11733
▁wrap	-11734
▁Tales	-11735
▁roster	-11736
ribution	-11737
▁symbols	-11738
▁acclaimed	-11739
▁companion	-11740
▁Et	-11741
▁tu	-11742
▁Ran	-11743
inter	-11744
▁moist	-11745
▁Hubbard	-11746
▁consequence	-11747
▁northeastern	-11748
waffe	-11749
istocr	-11750
▁Observ	-11751
▁authen	-11752
▁blamed	-11753
▁venues	-11754
▁Spencer	-11755
▁updated	-11756
▁dropping	-11757
▁syndrome	-11758
▁belonging	-11759
▁measuring	-11760
▁Archbishop	-11761
▁contribute	-11762
▁Springfield	-11763
▁parliamentary	-11764
mont	-11765
▁ecl	-11766
birds	-11767
ighed	-11768
▁1887	-11769
▁Hass	-11770
▁Shen	-11771
▁gest	-11772
▁Psych	-11773
▁usage	-11774
▁worse	-11775
▁Carlos	-11776
liminary	-11777
▁revenge	-11778
▁emotions	-11779
▁Afghanistan	-11780
▁Sz	-11781
arma	-11782
ewise	-11783
▁Shah	-11784
▁bowl	-11785
▁pier	-11786
▁submer	-11787
▁farmers	-11788
▁outcome	-11789
▁winners	-11790
rians	-11791
▁fraud	-11792
▁Marath	-11793
▁Region	-11794
▁allied	-11795
▁Hendrix	-11796
▁convince	-11797
▁whatever	-11798
▁battlefield	-11799
list	-11800
▁Gay	-11801
▁Stre	-11802
▁Machine	-11803
▁Friedrich	-11804
▁arguments	-11805
▁naturally	-11806
▁Technology	-11807
▁complement	-11808
▁reconstruct	-11809
tes	-11810
enos	-11811
▁Bes	-11812
emble	-11813
▁Cort	-11814
▁Jain	-11815
▁Soph	-11816
▁spir	-11817
▁Henri	-11818
▁gusts	-11819
▁melod	-11820
▁Surrey	-11821
▁convey	-11822
▁privile	-11823
▁indirect	-11824
▁refugees	-11825
▁Yugoslavia	-11826
▁instructions	-11827
▁137	-11828
aurus	-11829
▁Nova	-11830
thlete	-11831
▁Cinem	-11832
▁Former	-11833
▁gallery	-11834
▁volcano	-11835
rehensive	-11836
▁exterior	-11837
▁condemned	-11838
▁irregular	-11839
▁demographic	-11840
▁resignation	-11841
▁scholarship	-11842
▁participating	-11843
anka	-11844
etta	-11845
▁119	-11846
▁Vick	-11847
▁Brand	-11848
▁Speed	-11849
▁deriv	-11850
▁essay	-11851
▁finest	-11852
▁Cincinn	-11853
▁borough	-11854
▁leagues	-11855
▁posthum	-11856
▁Caroline	-11857
▁congress	-11858
▁doctrine	-11859
▁eruption	-11860
oi	-11861
iti	-11862
▁123	-11863
actic	-11864
▁penn	-11865
▁Biden	-11866
▁drunk	-11867
▁Barnes	-11868
▁martial	-11869
▁mentions	-11870
▁comprising	-11871
yan	-11872
▁Sib	-11873
▁Byzant	-11874
▁Claire	-11875
▁adjust	-11876
▁config	-11877
▁fabric	-11878
▁killer	-11879
▁ritual	-11880
▁agencies	-11881
▁listening	-11882
▁possessed	-11883
▁Additional	-11884
igo	-11885
sis	-11886
umi	-11887
assy	-11888
▁Mol	-11889
▁Sri	-11890
▁unh	-11891
▁dive	-11892
▁mbar	-11893
▁tent	-11894
▁Contem	-11895
▁conducting	-11896
iri	-11897
▁Slav	-11898
▁tasks	-11899
▁Kaiser	-11900
▁Cincinnati	-11901
▁regulations	-11902
ede	-11903
▁230	-11904
▁gam	-11905
▁hide	-11906
▁Banksia	-11907
▁peoples	-11908
▁absolute	-11909
▁homeless	-11910
▁mechanics	-11911
▁politically	-11912
▁consideration	-11913
MI	-11914
icus	-11915
▁asc	-11916
▁pig	-11917
olves	-11918
▁VIII	-11919
▁Meyer	-11920
▁curved	-11921
▁solely	-11922
▁routing	-11923
▁ambassador	-11924
orf	-11925
▁RO	-11926
▁Wu	-11927
▁clan	-11928
▁Belie	-11929
▁Chase	-11930
▁Using	-11931
▁fract	-11932
▁trout	-11933
▁myself	-11934
▁payment	-11935
▁Yugoslav	-11936
▁speculated	-11937
▁distinguish	-11938
penter	-11939
▁Range	-11940
▁walks	-11941
▁Timber	-11942
▁aristocr	-11943
▁climbing	-11944
▁publicity	-11945
pat	-11946
Music	-11947
▁Solar	-11948
▁borders	-11949
▁shipped	-11950
▁venture	-11951
▁properly	-11952
▁volcanic	-11953
▁weakness	-11954
▁spacecraft	-11955
pin	-11956
▁Aur	-11957
▁Walt	-11958
▁Month	-11959
▁reson	-11960
▁subsc	-11961
▁Austro	-11962
▁metall	-11963
▁Serbian	-11964
▁Sciences	-11965
▁subordin	-11966
▁Millennium	-11967
bu	-11968
alg	-11969
ikh	-11970
kar	-11971
acht	-11972
lude	-11973
▁Rup	-11974
▁reh	-11975
adows	-11976
▁Barn	-11977
▁Plat	-11978
▁canon	-11979
▁damaging	-11980
▁eligible	-11981
▁focusing	-11982
▁honorary	-11983
▁reporter	-11984
▁fragments	-11985
kan	-11986
anto	-11987
auge	-11988
rams	-11989
tage	-11990
▁1884	-11991
▁Expl	-11992
▁View	-11993
ampton	-11994
▁monster	-11995
▁abundant	-11996
▁Luftwaffe	-11997
▁dispatched	-11998
▁1875	-11999
▁Robb	-12000
▁rushing	-12001
▁Henderson	-12002
▁integrated	-12003
▁Conservative	-12004
mm	-12005
▁1878	-12006
▁nice	-12007
▁Carte	-12008
▁encomp	-12009
▁rounded	-12010
▁strings	-12011
▁Veronica	-12012
▁physically	-12013
▁CEO	-12014
▁MLB	-12015
▁Berm	-12016
▁Idol	-12017
▁Fifth	-12018
▁fault	-12019
▁repris	-12020
▁Abraham	-12021
▁Current	-12022
▁Computer	-12023
▁reminisc	-12024
▁Nam	-12025
▁1871	-12026
▁1886	-12027
▁Mann	-12028
▁kids	-12029
▁input	-12030
▁scout	-12031
▁Marcus	-12032
▁backst	-12033
▁brings	-12034
ironments	-12035
▁witnesses	-12036
▁complaints	-12037
mad	-12038
▁Aqu	-12039
▁jew	-12040
itars	-12041
▁Rear	-12042
▁pump	-12043
▁pseud	-12044
▁Luther	-12045
▁inning	-12046
▁immigrants	-12047
▁interactions	-12048
iki	-12049
oro	-12050
▁Scr	-12051
odied	-12052
▁Tall	-12053
istical	-12054
▁nephew	-12055
▁Alberta	-12056
▁favored	-12057
▁turbines	-12058
▁prompting	-12059
▁compromise	-12060
▁Continental	-12061
▁consistently	-12062
▁Eld	-12063
▁Fro	-12064
asses	-12065
▁Crow	-12066
▁unre	-12067
▁Rocky	-12068
▁argue	-12069
▁loose	-12070
▁fungus	-12071
▁screens	-12072
▁estimate	-12073
▁landmark	-12074
▁introduce	-12075
▁searching	-12076
▁permanently	-12077
▁Hi	-12078
▁abb	-12079
▁routine	-12080
▁McDonald	-12081
▁incidents	-12082
▁environments	-12083
AL	-12084
gon	-12085
ugu	-12086
overy	-12087
▁Mend	-12088
▁Exped	-12089
▁enlar	-12090
▁staged	-12091
▁transc	-12092
issioned	-12093
▁Maurice	-12094
▁vocalist	-12095
▁municipal	-12096
▁directions	-12097
ardo	-12098
held	-12099
▁liv	-12100
aults	-12101
works	-12102
▁dolph	-12103
▁Hebrew	-12104
▁cruise	-12105
▁guards	-12106
▁proxim	-12107
▁versus	-12108
▁Freedom	-12109
▁poverty	-12110
▁Aviation	-12111
▁Resident	-12112
▁assessment	-12113
▁navigation	-12114
▁punishment	-12115
▁achievement	-12116
eta	-12117
ampa	-12118
edia	-12119
▁1830	-12120
aceous	-12121
▁genes	-12122
atorial	-12123
rington	-12124
▁Julian	-12125
▁agrees	-12126
▁Compton	-12127
▁procedure	-12128
▁regiments	-12129
▁Composition	-12130
▁unsuccessfully	-12131
hou	-12132
ido	-12133
▁Musl	-12134
▁tough	-12135
▁operas	-12136
▁poster	-12137
▁remind	-12138
▁walked	-12139
▁Lancash	-12140
▁explored	-12141
▁coastline	-12142
▁exploration	-12143
arin	-12144
gary	-12145
▁132	-12146
▁mask	-12147
roscop	-12148
▁chann	-12149
▁Tigers	-12150
▁latest	-12151
▁decisive	-12152
arks	-12153
atty	-12154
usive	-12155
▁Tyler	-12156
▁Bosnia	-12157
▁Serbia	-12158
▁retrie	-12159
▁Circuit	-12160
▁superst	-12161
▁bacteria	-12162
▁Relations	-12163
▁encourage	-12164
▁mathematics	-12165
▁manufactured	-12166
▁AL	-12167
▁103	-12168
▁Esc	-12169
▁Seb	-12170
▁Tab	-12171
matic	-12172
▁Starr	-12173
▁carved	-12174
isations	-12175
▁Bennett	-12176
▁crucial	-12177
▁elevated	-12178
▁sensitive	-12179
▁transformed	-12180
▁psychological	-12181
▁XX	-12182
atisf	-12183
▁Talk	-12184
▁Term	-12185
▁Jeremy	-12186
▁reader	-12187
▁stored	-12188
▁convert	-12189
▁mansion	-12190
▁Lancashire	-12191
▁discussing	-12192
idia	-12193
▁Holl	-12194
▁Kann	-12195
▁Reyn	-12196
▁seiz	-12197
▁zinc	-12198
omical	-12199
▁Blake	-12200
▁decay	-12201
▁motif	-12202
▁width	-12203
▁intend	-12204
▁lesser	-12205
▁Crystal	-12206
▁Skinner	-12207
▁centimet	-12208
▁Personnel	-12209
▁proclaimed	-12210
▁complimented	-12211
ogs	-12212
avil	-12213
▁Raf	-12214
▁egg	-12215
▁cere	-12216
▁icon	-12217
▁oxid	-12218
▁Cloud	-12219
▁Leices	-12220
▁Turkey	-12221
▁tribut	-12222
▁extends	-12223
▁messages	-12224
▁continent	-12225
▁presidency	-12226
▁intermediate	-12227
ui	-12228
▁Exc	-12229
▁Led	-12230
▁coc	-12231
▁Gust	-12232
▁trio	-12233
▁annex	-12234
▁repet	-12235
▁clouds	-12236
▁Knights	-12237
▁Chandler	-12238
▁printing	-12239
▁expectations	-12240
PC	-12241
asp	-12242
gow	-12243
▁Ing	-12244
▁anx	-12245
▁1883	-12246
▁Ruth	-12247
▁Tommy	-12248
▁sheet	-12249
▁Dennis	-12250
▁bowled	-12251
▁wartime	-12252
▁associate	-12253
▁improving	-12254
▁Metacritic	-12255
▁functional	-12256
▁dimensional	-12257
oves	-12258
▁Liu	-12259
▁Shar	-12260
▁Suff	-12261
▁Than	-12262
▁True	-12263
season	-12264
▁spite	-12265
▁sailors	-12266
▁actively	-12267
▁disabled	-12268
▁scientist	-12269
▁Basketball	-12270
▁commitment	-12271
▁nevertheless	-12272
leb	-12273
▁ov	-12274
oric	-12275
otto	-12276
▁cha	-12277
▁oct	-12278
▁Nans	-12279
▁Nebr	-12280
▁Sans	-12281
ulture	-12282
▁Tibet	-12283
▁keeps	-12284
▁unrel	-12285
▁Clarke	-12286
▁Baldwin	-12287
▁strange	-12288
▁tourists	-12289
▁proximity	-12290
▁preparations	-12291
lex	-12292
▁122	-12293
▁haz	-12294
brook	-12295
oting	-12296
▁dock	-12297
riages	-12298
▁Marqu	-12299
▁zones	-12300
▁Tasman	-12301
▁Jennifer	-12302
▁depiction	-12303
▁qualities	-12304
▁critically	-12305
▁Ky	-12306
igon	-12307
nery	-12308
wind	-12309
▁750	-12310
▁Pine	-12311
▁craf	-12312
▁Perth	-12313
▁Heaven	-12314
▁silent	-12315
▁finance	-12316
▁frigate	-12317
▁streams	-12318
▁GameSpot	-12319
▁shar	-12320
herent	-12321
▁spell	-12322
▁Muslims	-12323
▁discour	-12324
▁philosopher	-12325
▁internationally	-12326
▁Basin	-12327
▁Grove	-12328
▁marsh	-12329
▁Bengal	-12330
▁anthem	-12331
▁regist	-12332
▁Calgary	-12333
▁Herbert	-12334
▁heavier	-12335
▁deposits	-12336
▁journalists	-12337
▁deliberately	-12338
▁1840	-12339
▁Barton	-12340
▁finger	-12341
▁intact	-12342
▁radius	-12343
ieg	-12344
zes	-12345
▁CS	-12346
▁GR	-12347
▁dug	-12348
▁ampl	-12349
▁washed	-12350
▁horizontal	-12351
▁mysterious	-12352
▁consequences	-12353
▁transmission	-12354
ichi	-12355
▁Hey	-12356
▁RPG	-12357
▁jaw	-12358
quest	-12359
otilla	-12360
▁Genesis	-12361
▁Pirates	-12362
▁advocated	-12363
▁objectives	-12364
▁131	-12365
▁370	-12366
▁Why	-12367
▁sib	-12368
ettes	-12369
▁1881	-12370
▁hurt	-12371
▁Lords	-12372
▁blast	-12373
▁shaft	-12374
▁dreadn	-12375
▁flower	-12376
▁panels	-12377
▁phosph	-12378
▁stabil	-12379
▁Trinity	-12380
▁estates	-12381
▁Phillips	-12382
▁Standard	-12383
▁teachers	-12384
▁phenomenon	-12385
wyn	-12386
▁aqu	-12387
▁fru	-12388
▁raw	-12389
▁seal	-12390
▁Gabri	-12391
▁cubic	-12392
▁fears	-12393
▁assets	-12394
▁manages	-12395
▁resemble	-12396
▁Nashville	-12397
▁percussion	-12398
▁accomplished	-12399
hart	-12400
ilus	-12401
▁Aub	-12402
▁Wit	-12403
iffer	-12404
▁Craw	-12405
▁Shaw	-12406
▁Delta	-12407
▁McKin	-12408
▁aided	-12409
▁holes	-12410
▁Powell	-12411
▁incred	-12412
▁Griffin	-12413
▁desired	-12414
▁ultimate	-12415
▁unveiled	-12416
▁Lightning	-12417
▁undertook	-12418
▁Expedition	-12419
▁atmospheric	-12420
▁discussions	-12421
PS	-12422
otus	-12423
▁Bott	-12424
▁intr	-12425
▁prince	-12426
▁Chelsea	-12427
▁Commerc	-12428
▁citizen	-12429
▁guitars	-12430
▁disputed	-12431
▁examined	-12432
shi	-12433
▁128	-12434
▁Pel	-12435
archy	-12436
▁Brew	-12437
▁Buch	-12438
▁epit	-12439
▁rook	-12440
▁curve	-12441
▁digit	-12442
▁Masters	-12443
▁staying	-12444
▁weighed	-12445
▁Nebraska	-12446
▁consensus	-12447
▁Crim	-12448
▁masc	-12449
iggins	-12450
▁rally	-12451
▁Caesar	-12452
▁loaded	-12453
▁relied	-12454
▁triumph	-12455
▁Phillies	-12456
▁horsepower	-12457
▁Headquarters	-12458
▁da	-12459
▁Mom	-12460
▁Sau	-12461
▁Carn	-12462
▁Drag	-12463
▁masses	-12464
▁runway	-12465
▁refuses	-12466
▁witnessed	-12467
▁acceptance	-12468
▁Scientology	-12469
▁northwestern	-12470
▁UB	-12471
hers	-12472
▁Tyr	-12473
▁sew	-12474
ovsky	-12475
▁1867	-12476
▁1869	-12477
▁1882	-12478
▁golf	-12479
▁postp	-12480
▁eighteen	-12481
▁habitats	-12482
▁literally	-12483
▁contributing	-12484
yc	-12485
▁McN	-12486
▁Hutton	-12487
▁Gardner	-12488
▁millions	-12489
▁republic	-12490
▁submerged	-12491
opol	-12492
▁etc	-12493
▁acquire	-12494
▁nicknamed	-12495
▁twentieth	-12496
iah	-12497
ocy	-12498
▁EU	-12499
▁Mi	-12500
▁124	-12501
▁Bron	-12502
▁Glas	-12503
▁joke	-12504
▁owing	-12505
▁stair	-12506
▁assign	-12507
▁insuff	-12508
▁ensuing	-12509
▁invented	-12510
▁Parachute	-12511
▁disappear	-12512
▁citizenship	-12513
▁Uk	-12514
antle	-12515
grade	-12516
icity	-12517
▁inex	-12518
ishops	-12519
usters	-12520
▁minim	-12521
▁Darren	-12522
▁Dudley	-12523
▁tunnels	-12524
▁reserves	-12525
▁sporting	-12526
▁reluctant	-12527
▁executives	-12528
ibl	-12529
orge	-12530
▁ups	-12531
▁1873	-12532
▁Sold	-12533
▁Ellis	-12534
▁Percy	-12535
▁pneum	-12536
▁Fergus	-12537
▁Hispan	-12538
▁confer	-12539
▁plates	-12540
▁Romania	-12541
▁register	-12542
▁progressive	-12543
▁Ble	-12544
stand	-12545
▁Iran	-12546
▁voters	-12547
▁Solomon	-12548
▁belonged	-12549
▁opinions	-12550
▁prospect	-12551
▁Political	-12552
▁exercises	-12553
▁populated	-12554
▁projected	-12555
▁submarines	-12556
eli	-12557
▁Cut	-12558
▁Sad	-12559
▁Glou	-12560
▁hunt	-12561
▁wool	-12562
▁Money	-12563
▁eldest	-12564
▁remake	-12565
▁Islamic	-12566
▁Neptune	-12567
▁caliber	-12568
▁lengthy	-12569
▁mystery	-12570
▁Intellig	-12571
▁interviewed	-12572
DI	-12573
isk	-12574
ubs	-12575
var	-12576
▁Fun	-12577
opsis	-12578
▁Berg	-12579
▁bapt	-12580
▁accus	-12581
▁Colomb	-12582
▁Saturn	-12583
▁genera	-12584
▁halted	-12585
▁pounder	-12586
▁Augustus	-12587
▁enrolled	-12588
▁switched	-12589
▁captivity	-12590
▁corruption	-12591
di	-12592
▁Num	-12593
front	-12594
▁Reed	-12595
▁butt	-12596
ashing	-12597
▁Isles	-12598
▁Venus	-12599
▁stall	-12600
▁Torres	-12601
▁steady	-12602
▁monthly	-12603
▁disliked	-12604
ologically	-12605
▁comprised	-12606
▁comparable	-12607
▁extraordin	-12608
isor	-12609
▁116	-12610
▁Laz	-12611
▁Pun	-12612
▁oak	-12613
▁user	-12614
▁Contemporary	-12615
▁metropolitan	-12616
AM	-12617
utely	-12618
▁1872	-12619
▁Watson	-12620
▁Culture	-12621
▁involve	-12622
▁channels	-12623
▁performers	-12624
▁preventing	-12625
▁separately	-12626
adal	-12627
ungle	-12628
▁Kane	-12629
▁Yard	-12630
▁adds	-12631
▁brut	-12632
licted	-12633
▁Bermuda	-12634
▁singers	-12635
▁blockade	-12636
▁repaired	-12637
bus	-12638
child	-12639
keley	-12640
▁Metal	-12641
▁Sword	-12642
▁ineff	-12643
▁shirt	-12644
▁Browns	-12645
▁Contin	-12646
▁Tunnel	-12647
▁enormous	-12648
▁tensions	-12649
▁regardless	-12650
zo	-12651
irk	-12652
eria	-12653
hand	-12654
▁129	-12655
▁Films	-12656
▁Reich	-12657
▁rifle	-12658
▁Damage	-12659
▁shadow	-12660
▁collision	-12661
▁spectators	-12662
▁achievements	-12663
▁installation	-12664
aku	-12665
▁CG	-12666
▁Wis	-12667
heads	-12668
ilera	-12669
icular	-12670
estrian	-12671
▁Comple	-12672
▁Deputy	-12673
▁Female	-12674
▁unanim	-12675
▁Notable	-12676
▁contempor	-12677
▁machinery	-12678
▁quantities	-12679
ptic	-12680
▁Jin	-12681
▁cro	-12682
▁ion	-12683
▁lip	-12684
Tunes	-12685
▁Herm	-12686
▁Salv	-12687
▁Wool	-12688
▁flags	-12689
▁Twenty	-12690
▁modest	-12691
▁Aguilera	-12692
▁appealed	-12693
▁aviation	-12694
▁explosive	-12695
▁molecular	-12696
▁pronounced	-12697
gi	-12698
oop	-12699
zed	-12700
▁bol	-12701
▁Pack	-12702
▁Scand	-12703
▁Squad	-12704
▁farms	-12705
▁trips	-12706
▁Choice	-12707
▁Denver	-12708
▁Prison	-12709
▁stroke	-12710
▁Lithuan	-12711
▁Preston	-12712
▁variant	-12713
▁engaging	-12714
▁judicial	-12715
▁incomplete	-12716
inqu	-12717
▁hect	-12718
▁hier	-12719
▁Derby	-12720
▁Giant	-12721
angered	-12722
▁Butter	-12723
▁Ferdin	-12724
▁Method	-12725
▁revived	-12726
▁gathering	-12727
▁revealing	-12728
▁sacrifice	-12729
▁songwriting	-12730
▁instrumentation	-12731
pect	-12732
▁Thor	-12733
ctuary	-12734
▁Appro	-12735
through	-12736
▁saving	-12737
▁termed	-12738
▁custody	-12739
▁damages	-12740
▁Lancaster	-12741
bery	-12742
▁quit	-12743
▁unst	-12744
employ	-12745
itects	-12746
▁Essex	-12747
▁dragon	-12748
▁suffer	-12749
▁tradem	-12750
▁relating	-12751
▁merchants	-12752
iko	-12753
▁sic	-12754
▁Clif	-12755
▁Drum	-12756
▁Austen	-12757
▁Senior	-12758
▁delight	-12759
▁seemingly	-12760
▁intersections	-12761
HS	-12762
NC	-12763
▁Ré	-12764
enne	-12765
▁Sor	-12766
▁fib	-12767
▁abst	-12768
▁Desert	-12769
▁suited	-12770
▁Baptist	-12771
▁erosion	-12772
▁tactical	-12773
▁Therefore	-12774
▁Philippine	-12775
▁reminiscent	-12776
Re	-12777
zac	-12778
▁Aj	-12779
xide	-12780
hammad	-12781
▁grain	-12782
▁greet	-12783
▁overd	-12784
▁woods	-12785
chester	-12786
▁improv	-12787
▁roller	-12788
▁Capital	-12789
▁shopping	-12790
▁collecting	-12791
▁subtropical	-12792
dam	-12793
ugs	-12794
▁fluid	-12795
▁honey	-12796
ountain	-12797
▁Archae	-12798
▁fights	-12799
▁Telegraph	-12800
▁Electronic	-12801
▁acquisition	-12802
▁declaration	-12803
▁XI	-12804
▁yd	-12805
raid	-12806
▁Duc	-12807
▁Yet	-12808
amics	-12809
eries	-12810
▁buff	-12811
▁adequ	-12812
▁Various	-12813
▁doubles	-12814
▁faction	-12815
▁Character	-12816
▁disappoint	-12817
.1	-12818
ymn	-12819
▁MC	-12820
ripp	-12821
▁142	-12822
▁Canu	-12823
▁Doug	-12824
▁silk	-12825
▁Ellen	-12826
▁Laura	-12827
▁Rugby	-12828
▁flesh	-12829
▁princ	-12830
▁Adrian	-12831
▁crowned	-12832
▁airborne	-12833
▁motorway	-12834
▁interrupted	-12835
ED	-12836
RO	-12837
▁NL	-12838
▁hi	-12839
▁Peg	-12840
oning	-12841
▁Spin	-12842
▁hipp	-12843
alysis	-12844
▁Arena	-12845
▁cameo	-12846
▁dealt	-12847
▁honest	-12848
▁muzzle	-12849
▁rapper	-12850
▁coaches	-12851
▁expense	-12852
▁loyalty	-12853
▁mistake	-12854
▁unaware	-12855
ithm	-12856
▁Leo	-12857
▁Moz	-12858
olith	-12859
▁1868	-12860
▁Rice	-12861
▁gear	-12862
▁milk	-12863
▁reop	-12864
▁Smack	-12865
▁subsidi	-12866
▁bankrupt	-12867
how	-12868
▁Dj	-12869
uchi	-12870
▁151	-12871
▁Chan	-12872
▁Come	-12873
▁deeper	-12874
▁worker	-12875
▁Quarter	-12876
▁frontier	-12877
▁memories	-12878
▁theaters	-12879
▁commentators	-12880
▁Cho	-12881
▁lux	-12882
▁sect	-12883
▁Logan	-12884
▁Rosen	-12885
▁aster	-12886
▁draws	-12887
▁hatch	-12888
▁proud	-12889
▁Romans	-12890
▁ironcl	-12891
▁discipline	-12892
▁orchestral	-12893
▁Engineering	-12894
boat	-12895
itol	-12896
▁Bea	-12897
▁Food	-12898
▁Rare	-12899
▁Total	-12900
▁Usher	-12901
▁paved	-12902
▁Morton	-12903
▁Newman	-12904
▁curves	-12905
▁incons	-12906
▁photos	-12907
▁batsman	-12908
▁currency	-12909
▁conjunction	-12910
ding	-12911
▁Gran	-12912
▁Lodge	-12913
▁Warsaw	-12914
▁iTunes	-12915
▁tables	-12916
▁dynamic	-12917
▁electro	-12918
▁kitchen	-12919
▁Buddhist	-12920
▁chapters	-12921
▁overcome	-12922
▁thickness	-12923
▁Protection	-12924
▁neighbouring	-12925
gun	-12926
core	-12927
▁Drew	-12928
▁Marl	-12929
▁rape	-12930
mother	-12931
▁Catal	-12932
▁deals	-12933
▁seeds	-12934
▁Jeffrey	-12935
▁undergo	-12936
▁AllMusic	-12937
▁Reynolds	-12938
▁Brigadier	-12939
▁editorial	-12940
▁inhabited	-12941
▁demonstrate	-12942
▁discontinued	-12943
▁Dh	-12944
ifax	-12945
▁Cec	-12946
▁Kem	-12947
▁MVP	-12948
▁Oil	-12949
stock	-12950
▁Cros	-12951
▁NASA	-12952
▁Lakes	-12953
▁jokes	-12954
▁coffee	-12955
▁gaming	-12956
▁lifted	-12957
▁topics	-12958
▁unrest	-12959
▁Frances	-12960
▁farming	-12961
▁Flanders	-12962
▁Hawaiian	-12963
▁disputes	-12964
▁thoughts	-12965
▁contested	-12966
▁dissolved	-12967
▁pregnancy	-12968
▁instructed	-12969
▁nineteenth	-12970
▁allegations	-12971
amine	-12972
▁Ming	-12973
▁chrom	-12974
▁unpop	-12975
▁Sussex	-12976
▁perpet	-12977
▁presum	-12978
▁pupils	-12979
▁grossed	-12980
▁temples	-12981
▁therapy	-12982
▁rebounds	-12983
▁scrapped	-12984
▁demanding	-12985
▁underwater	-12986
▁cooperation	-12987
▁.2	-12988
ivic	-12989
onge	-12990
▁tea	-12991
▁Mail	-12992
▁amid	-12993
▁Style	-12994
▁notion	-12995
▁Halifax	-12996
▁Maxwell	-12997
▁ceiling	-12998
▁genuine	-12999
▁findings	-13000
▁requests	-13001
▁scenario	-13002
▁Architect	-13003
▁developer	-13004
▁Industrial	-13005
▁overwhelming	-13006
bel	-13007
▁Yu	-13008
ierra	-13009
odium	-13010
▁Mumb	-13011
▁gamb	-13012
▁Emily	-13013
▁edges	-13014
▁topic	-13015
▁Finals	-13016
▁inject	-13017
▁metals	-13018
ographed	-13019
▁Dynasty	-13020
▁formations	-13021
agher	-13022
▁1879	-13023
▁sear	-13024
▁telev	-13025
▁Number	-13026
▁Wander	-13027
▁openly	-13028
▁Canucks	-13029
▁honours	-13030
▁nervous	-13031
▁Berkeley	-13032
▁speakers	-13033
▁authentic	-13034
▁memorable	-13035
▁successive	-13036
▁instruction	-13037
▁IC	-13038
post	-13039
▁Tir	-13040
▁Jazz	-13041
▁blown	-13042
▁cease	-13043
▁reper	-13044
▁Celtic	-13045
▁sketch	-13046
▁auction	-13047
▁experts	-13048
▁graphic	-13049
▁jumping	-13050
▁barracks	-13051
▁floating	-13052
▁generate	-13053
▁comparing	-13054
▁Professional	-13055
RS	-13056
assic	-13057
urers	-13058
▁Hale	-13059
▁Blair	-13060
▁atoms	-13061
▁joins	-13062
rection	-13063
▁merger	-13064
▁Agricult	-13065
▁coalition	-13066
▁fatalities	-13067
▁remarkable	-13068
▁insufficient	-13069
onso	-13070
ushes	-13071
▁Otto	-13072
▁Breck	-13073
▁Store	-13074
▁metap	-13075
▁doctors	-13076
▁goddess	-13077
▁Generation	-13078
pow	-13079
▁202	-13080
▁Ost	-13081
▁Hess	-13082
▁Myst	-13083
▁hung	-13084
▁Annie	-13085
▁Hergé	-13086
▁Leban	-13087
▁fatal	-13088
▁widow	-13089
igrated	-13090
▁Hollow	-13091
▁Rupert	-13092
▁symmet	-13093
▁Knowles	-13094
▁transit	-13095
▁keyboard	-13096
▁dinosaurs	-13097
▁hurricanes	-13098
hero	-13099
iche	-13100
▁Dian	-13101
▁Seas	-13102
▁Stal	-13103
▁subd	-13104
▁trem	-13105
▁Aaron	-13106
▁insist	-13107
▁Commons	-13108
▁harvest	-13109
▁deciding	-13110
▁proceedings	-13111
▁strengthening	-13112
atz	-13113
iary	-13114
inus	-13115
pher	-13116
▁Milan	-13117
▁Steph	-13118
hylogen	-13119
▁impress	-13120
▁corridor	-13121
iev	-13122
immer	-13123
▁Hous	-13124
▁Roth	-13125
▁gram	-13126
▁Crazy	-13127
▁witch	-13128
▁knowing	-13129
▁readily	-13130
▁speeches	-13131
▁dimensions	-13132
Down	-13133
ilia	-13134
▁Kin	-13135
▁Gone	-13136
▁Luis	-13137
▁Stop	-13138
▁file	-13139
▁Motor	-13140
▁Sonic	-13141
▁opted	-13142
▁Foster	-13143
▁Keynes	-13144
▁wishes	-13145
▁Conserv	-13146
▁loading	-13147
▁imported	-13148
▁landings	-13149
▁SmackDown	-13150
GB	-13151
inae	-13152
▁Bot	-13153
▁rav	-13154
▁Ivan	-13155
▁Made	-13156
amation	-13157
▁Almost	-13158
▁rushed	-13159
▁magical	-13160
▁Newfound	-13161
▁diseases	-13162
▁philosoph	-13163
▁graduating	-13164
▁northwestward	-13165
bard	-13166
idium	-13167
▁Hawk	-13168
▁Pent	-13169
▁busy	-13170
▁clip	-13171
▁keen	-13172
▁laud	-13173
rators	-13174
▁Edwin	-13175
▁Urban	-13176
▁arbit	-13177
▁amphib	-13178
▁barely	-13179
▁lineup	-13180
▁slower	-13181
▁warriors	-13182
▁exhibited	-13183
▁supporter	-13184
▁accomplish	-13185
iji	-13186
pit	-13187
atri	-13188
▁Lag	-13189
▁Mig	-13190
▁ibn	-13191
▁AIDS	-13192
▁Rhys	-13193
ipping	-13194
▁anger	-13195
▁Fringe	-13196
▁herald	-13197
▁infant	-13198
▁nomine	-13199
▁speaker	-13200
▁Palestine	-13201
fires	-13202
▁outs	-13203
▁rays	-13204
▁stom	-13205
▁diary	-13206
▁rebel	-13207
▁costumes	-13208
▁missiles	-13209
▁delegates	-13210
▁requirement	-13211
▁Newfoundland	-13212
olo	-13213
isans	-13214
▁Bris	-13215
▁Wilde	-13216
▁shops	-13217
isphere	-13218
▁Circle	-13219
▁Allmusic	-13220
▁pleasure	-13221
▁regained	-13222
▁surpassed	-13223
▁introducing	-13224
UC	-13225
usty	-13226
▁134	-13227
▁cam	-13228
guard	-13229
▁migr	-13230
ophone	-13231
▁Plate	-13232
▁cryst	-13233
▁Marcel	-13234
▁organs	-13235
▁Assistant	-13236
▁composers	-13237
▁perfectly	-13238
apa	-13239
asia	-13240
mill	-13241
▁Kes	-13242
▁joy	-13243
berto	-13244
▁Poll	-13245
▁Rush	-13246
▁Wang	-13247
▁wolf	-13248
▁Crime	-13249
▁Haiti	-13250
▁algor	-13251
athetic	-13252
▁Glasgow	-13253
▁Scandin	-13254
▁Stories	-13255
▁Michelle	-13256
▁undergrad	-13257
50	-13258
vor	-13259
▁FM	-13260
▁Fac	-13261
▁Ned	-13262
▁Sue	-13263
▁Tru	-13264
▁nam	-13265
▁Duck	-13266
▁fees	-13267
▁Shear	-13268
▁publish	-13269
▁tourism	-13270
inguished	-13271
▁Brighton	-13272
▁Theodore	-13273
▁descended	-13274
▁supplement	-13275
▁sufficiently	-13276
osity	-13277
uania	-13278
▁Carr	-13279
▁Ober	-13280
▁Shir	-13281
▁Soft	-13282
▁tram	-13283
▁Citiz	-13284
▁Drama	-13285
▁gains	-13286
▁Screen	-13287
▁subtle	-13288
▁Airborne	-13289
▁reserved	-13290
▁uprising	-13291
▁allegedly	-13292
▁Chamberlain	-13293
▁Productions	-13294
▁evolutionary	-13295
▁illustrations	-13296
OR	-13297
ho	-13298
▁Sr	-13299
▁1848	-13300
▁Gren	-13301
▁Make	-13302
▁dawn	-13303
▁modes	-13304
▁hamlet	-13305
▁Turnpike	-13306
▁propaganda	-13307
nut	-13308
▁SE	-13309
cont	-13310
▁Cou	-13311
▁Fab	-13312
oline	-13313
▁dors	-13314
▁lion	-13315
▁bench	-13316
▁revel	-13317
▁ruins	-13318
▁Kepler	-13319
▁Mumbai	-13320
▁diving	-13321
▁suburb	-13322
▁spawned	-13323
▁Orthodox	-13324
▁averaged	-13325
▁privately	-13326
gov	-13327
▁SC	-13328
anan	-13329
send	-13330
▁hur	-13331
▁Bolton	-13332
▁layout	-13333
▁networks	-13334
▁proceeds	-13335
▁sexually	-13336
▁excessive	-13337
▁deployment	-13338
▁emphasized	-13339
IC	-13340
sch	-13341
▁CN	-13342
▁HV	-13343
imer	-13344
ipel	-13345
▁Bod	-13346
▁SAS	-13347
▁shed	-13348
▁artif	-13349
▁Easter	-13350
▁Kapoor	-13351
▁distances	-13352
▁necessarily	-13353
▁demonstration	-13354
VA	-13355
rip	-13356
urbs	-13357
▁Hip	-13358
▁1874	-13359
▁Bulg	-13360
▁Enix	-13361
▁Flag	-13362
▁Vlad	-13363
▁ally	-13364
ficial	-13365
ochond	-13366
▁Singh	-13367
▁deton	-13368
achelor	-13369
▁Dakota	-13370
▁Palmer	-13371
▁backup	-13372
▁mirror	-13373
▁sacred	-13374
▁spores	-13375
▁coloured	-13376
▁operator	-13377
▁Ferdinand	-13378
▁Lithuania	-13379
▁computers	-13380
▁screening	-13381
▁Adventures	-13382
▁progression	-13383
elic	-13384
urse	-13385
▁Cyp	-13386
▁Mam	-13387
▁Rama	-13388
▁Spok	-13389
▁item	-13390
ellers	-13391
▁escal	-13392
▁Hamlet	-13393
▁Saints	-13394
▁Venice	-13395
▁consul	-13396
▁Raymond	-13397
▁signals	-13398
▁Chambers	-13399
▁Ferguson	-13400
▁recognize	-13401
HA	-13402
▁dorm	-13403
ervers	-13404
▁Given	-13405
▁drift	-13406
▁overh	-13407
▁domain	-13408
▁preval	-13409
▁tennis	-13410
imination	-13411
▁fragment	-13412
▁reversed	-13413
▁Dominican	-13414
▁unpopular	-13415
▁protecting	-13416
▁underlying	-13417
▁Lü	-13418
▁cit	-13419
▁chess	-13420
▁Planet	-13421
▁genius	-13422
▁athlete	-13423
▁referee	-13424
▁Movement	-13425
▁advances	-13426
▁colleges	-13427
▁generals	-13428
▁licensed	-13429
▁investigated	-13430
38	-13431
eros	-13432
soon	-13433
▁Jen	-13434
▁NOK	-13435
▁bin	-13436
inite	-13437
ocene	-13438
pling	-13439
▁tide	-13440
▁Busch	-13441
▁Chall	-13442
▁Global	-13443
▁muscle	-13444
agonists	-13445
▁honored	-13446
▁Arkansas	-13447
▁migration	-13448
▁unusually	-13449
▁efficiency	-13450
▁struggling	-13451
▁Commissioner	-13452
cope	-13453
▁Hil	-13454
▁calm	-13455
▁Plaza	-13456
▁Turks	-13457
▁copyr	-13458
▁ridic	-13459
▁Vienna	-13460
▁harbor	-13461
▁Cabinet	-13462
▁circles	-13463
▁coaching	-13464
▁drainage	-13465
▁redesign	-13466
▁abolition	-13467
▁Chancellor	-13468
▁attractive	-13469
▁contracted	-13470
▁administered	-13471
▁Ow	-13472
imir	-13473
wart	-13474
yers	-13475
▁Kot	-13476
▁abd	-13477
▁Bear	-13478
▁Lamb	-13479
▁terr	-13480
arians	-13481
raltar	-13482
▁Flood	-13483
▁Randy	-13484
▁cream	-13485
▁presc	-13486
▁analog	-13487
▁assume	-13488
▁Forever	-13489
▁Gibraltar	-13490
eo	-13491
ked	-13492
orig	-13493
▁spo	-13494
▁Gonz	-13495
▁Winc	-13496
▁corp	-13497
▁shoo	-13498
▁cabin	-13499
▁Norton	-13500
▁delays	-13501
▁gospel	-13502
▁gravity	-13503
▁outdoor	-13504
▁secular	-13505
▁declaring	-13506
▁sophistic	-13507
▁incorporate	-13508
▁Consequently	-13509
▁incorporates	-13510
▁Bé	-13511
▁148	-13512
cious	-13513
▁Cena	-13514
▁Wilf	-13515
▁nests	-13516
▁resur	-13517
▁Flames	-13518
▁Nation	-13519
▁pushing	-13520
▁festivals	-13521
▁substance	-13522
▁synthesis	-13523
▁neighboring	-13524
▁entertaining	-13525
▁CA	-13526
bach	-13527
ilis	-13528
omes	-13529
onom	-13530
▁270	-13531
▁Ply	-13532
▁Schm	-13533
▁flee	-13534
▁puzz	-13535
entric	-13536
▁Nobel	-13537
▁gauge	-13538
veloped	-13539
▁Gerald	-13540
▁Slovak	-13541
▁drives	-13542
▁retros	-13543
▁rulers	-13544
▁lessons	-13545
▁totally	-13546
▁McCarthy	-13547
▁tracking	-13548
▁Azerbaijan	-13549
MC	-13550
igu	-13551
aude	-13552
bing	-13553
edar	-13554
▁Fow	-13555
▁Gav	-13556
▁amp	-13557
▁dome	-13558
▁plut	-13559
▁lacks	-13560
▁micro	-13561
▁Philos	-13562
▁Regard	-13563
▁patrols	-13564
▁upgrade	-13565
▁affecting	-13566
atar	-13567
lass	-13568
▁WWF	-13569
▁ber	-13570
erals	-13571
▁Isab	-13572
▁besie	-13573
▁inhib	-13574
▁nights	-13575
▁Borough	-13576
▁charting	-13577
▁fortified	-13578
▁volunteer	-13579
▁sovereignty	-13580
vy	-13581
▁Ru	-13582
▁fu	-13583
umar	-13584
▁Esp	-13585
▁Kur	-13586
▁duet	-13587
▁soci	-13588
spring	-13589
▁rider	-13590
▁errors	-13591
▁murders	-13592
▁cultures	-13593
▁surfaces	-13594
▁unemploy	-13595
▁eliminate	-13596
▁lifestyle	-13597
▁maintains	-13598
▁invitation	-13599
▁comfortable	-13600
▁preliminary	-13601
▁Subsequently	-13602
avo	-13603
essa	-13604
▁141	-13605
gence	-13606
▁Dale	-13607
▁fare	-13608
▁mast	-13609
olades	-13610
▁chlor	-13611
▁demon	-13612
▁eject	-13613
▁grants	-13614
▁hiding	-13615
▁Doggett	-13616
▁compact	-13617
▁creates	-13618
▁internet	-13619
▁settings	-13620
▁negotiated	-13621
Far	-13622
▁UC	-13623
▁Wa	-13624
arck	-13625
▁Bun	-13626
▁Sha	-13627
▁Happy	-13628
▁McMah	-13629
▁Online	-13630
▁Rodrig	-13631
▁interf	-13632
▁jersey	-13633
lla	-13634
asma	-13635
lies	-13636
▁Ess	-13637
▁Crom	-13638
▁trap	-13639
rained	-13640
▁Wyatt	-13641
▁reads	-13642
▁Batter	-13643
▁Legion	-13644
▁Miguel	-13645
▁regret	-13646
▁procedures	-13647
▁destination	-13648
▁Lore	-13649
ampire	-13650
▁fairy	-13651
▁satir	-13652
▁fusion	-13653
▁mutual	-13654
▁totaled	-13655
▁assessed	-13656
▁Publishing	-13657
▁Ps	-13658
▁Pon	-13659
▁1812	-13660
▁pled	-13661
ainted	-13662
▁Pengu	-13663
▁Prepar	-13664
▁Stewie	-13665
▁locate	-13666
▁prosecut	-13667
▁successes	-13668
▁generations	-13669
▁comprehensive	-13670
oshi	-13671
▁Mut	-13672
▁Too	-13673
lides	-13674
▁Pike	-13675
▁Yank	-13676
▁metab	-13677
▁Places	-13678
▁Reform	-13679
▁blacks	-13680
▁Kannada	-13681
▁Rhodesia	-13682
▁advocate	-13683
▁employee	-13684
▁Admiralty	-13685
▁abolished	-13686
▁inscription	-13687
fold	-13688
quez	-13689
▁146	-13690
▁Doc	-13691
▁Lie	-13692
▁1859	-13693
▁Lead	-13694
▁Lear	-13695
lessly	-13696
▁Apart	-13697
iblical	-13698
osystem	-13699
▁divine	-13700
▁ranged	-13701
▁renown	-13702
▁stance	-13703
▁Reviews	-13704
▁concludes	-13705
▁ministers	-13706
▁specialized	-13707
▁Broadcasting	-13708
▁CP	-13709
ilian	-13710
▁Wald	-13711
▁Want	-13712
▁clay	-13713
▁Edgar	-13714
▁Rovers	-13715
▁orient	-13716
▁tailed	-13717
▁Advance	-13718
▁counsel	-13719
▁judgment	-13720
▁celebrity	-13721
▁identification	-13722
rez	-13723
atum	-13724
orus	-13725
▁136	-13726
▁Ltd	-13727
elfth	-13728
▁Look	-13729
▁Wake	-13730
▁crus	-13731
▁puts	-13732
▁Right	-13733
osphere	-13734
▁Brandon	-13735
▁Treasury	-13736
▁ambitious	-13737
▁nationally	-13738
kh	-13739
lew	-13740
▁iP	-13741
acco	-13742
▁Anti	-13743
▁Lois	-13744
▁lined	-13745
versely	-13746
▁Sebast	-13747
▁Article	-13748
▁profits	-13749
▁Starting	-13750
▁confined	-13751
▁mistaken	-13752
RC	-13753
▁CC	-13754
rand	-13755
union	-13756
uxili	-13757
▁Bowie	-13758
▁Large	-13759
▁inver	-13760
▁Nasser	-13761
▁floods	-13762
▁resort	-13763
▁tended	-13764
▁wounds	-13765
▁enhance	-13766
▁manifest	-13767
▁skeleton	-13768
▁stripped	-13769
rah	-13770
ulu	-13771
▁Cly	-13772
▁rer	-13773
▁tum	-13774
ounce	-13775
▁Lich	-13776
▁Rams	-13777
▁bold	-13778
▁clar	-13779
▁sink	-13780
▁bills	-13781
▁chord	-13782
▁cliff	-13783
rolling	-13784
▁Bulgar	-13785
▁thrust	-13786
▁Titanic	-13787
▁Twitter	-13788
▁goaltend	-13789
▁Canadiens	-13790
▁Lithuanian	-13791
▁Renaissance	-13792
▁descendants	-13793
▁measurements	-13794
▁Fa	-13795
iots	-13796
osal	-13797
olics	-13798
▁Trad	-13799
▁depr	-13800
▁pine	-13801
▁extant	-13802
▁denomin	-13803
▁painter	-13804
Pa	-13805
▁210	-13806
▁Laf	-13807
▁Kiss	-13808
▁Site	-13809
▁gran	-13810
esters	-13811
▁Devon	-13812
▁Price	-13813
▁naked	-13814
▁Wesley	-13815
▁chains	-13816
▁Nothing	-13817
▁monitor	-13818
▁precurs	-13819
▁Plymouth	-13820
▁massacre	-13821
▁Antarctic	-13822
▁Commercial	-13823
▁competitors	-13824
▁congregation	-13825
▁predecessors	-13826
oko	-13827
▁oz	-13828
ride	-13829
rina	-13830
alore	-13831
ocese	-13832
▁Bund	-13833
▁Kens	-13834
▁RIAA	-13835
▁relax	-13836
▁sheep	-13837
▁Hannah	-13838
▁bitter	-13839
▁floors	-13840
▁trails	-13841
▁conting	-13842
▁boarding	-13843
▁aggregate	-13844
▁promising	-13845
▁appreciated	-13846
▁interference	-13847
▁Ny	-13848
▁Gam	-13849
ilogy	-13850
▁Cann	-13851
▁Lomb	-13852
▁Pand	-13853
writer	-13854
▁embarr	-13855
▁sphere	-13856
▁consent	-13857
▁convinc	-13858
▁defenses	-13859
▁grandson	-13860
▁hardware	-13861
▁Leicester	-13862
▁allocated	-13863
▁Distinguished	-13864
▁modifications	-13865
aru	-13866
zel	-13867
atra	-13868
ndum	-13869
sover	-13870
▁Resp	-13871
▁Shack	-13872
▁knock	-13873
▁pocket	-13874
▁traits	-13875
▁Monster	-13876
▁Municip	-13877
▁Wheeler	-13878
▁worried	-13879
▁athletic	-13880
▁telescope	-13881
▁enthusiastic	-13882
▁imprisonment	-13883
ht	-13884
oan	-13885
agic	-13886
arta	-13887
▁Gaz	-13888
▁Put	-13889
▁Spy	-13890
▁dys	-13891
▁unt	-13892
▁Boyd	-13893
▁jail	-13894
cliffe	-13895
isbury	-13896
▁Britt	-13897
▁Rather	-13898
▁Sicily	-13899
▁centres	-13900
▁accuracy	-13901
▁Soundtrack	-13902
▁homosexual	-13903
▁subsidiary	-13904
upid	-13905
zens	-13906
▁Miy	-13907
itory	-13908
▁ease	-13909
▁forts	-13910
▁Sierra	-13911
▁submit	-13912
▁chances	-13913
▁editing	-13914
▁elderly	-13915
▁Columbus	-13916
▁preceded	-13917
▁securing	-13918
▁diagnosed	-13919
▁respected	-13920
▁Nonetheless	-13921
▁Mé	-13922
▁Rid	-13923
irate	-13924
▁1200	-13925
▁haul	-13926
▁vibr	-13927
enburg	-13928
▁sixty	-13929
▁theor	-13930
▁Damasc	-13931
▁anchor	-13932
▁enable	-13933
▁overth	-13934
▁slopes	-13935
▁Breckin	-13936
▁Chairman	-13937
▁reflects	-13938
▁veterans	-13939
▁Carpenter	-13940
▁adventures	-13941
▁capabilities	-13942
avi	-13943
▁HD	-13944
auer	-13945
onde	-13946
roid	-13947
▁139	-13948
swick	-13949
▁Euro	-13950
▁Flet	-13951
▁Hast	-13952
▁blog	-13953
▁pond	-13954
Reilly	-13955
aulted	-13956
▁disgu	-13957
▁posed	-13958
▁Durham	-13959
▁arcade	-13960
▁dorsal	-13961
▁planes	-13962
▁worksh	-13963
▁colonel	-13964
▁smoking	-13965
▁Engineer	-13966
▁Rochester	-13967
▁Southeast	-13968
▁Palestinian	-13969
▁Dy	-13970
beit	-13971
▁Suz	-13972
▁psy	-13973
flies	-13974
▁Wend	-13975
estock	-13976
▁Heath	-13977
▁prayer	-13978
▁summar	-13979
▁thirds	-13980
▁eleventh	-13981
▁pitching	-13982
▁Má	-13983
bred	-13984
rock	-13985
roft	-13986
▁Sed	-13987
▁Bangl	-13988
▁bread	-13989
▁immun	-13990
▁Guadal	-13991
▁matrix	-13992
▁Stefani	-13993
▁precise	-13994
▁qualify	-13995
▁Catholics	-13996
▁photographer	-13997
iker	-13998
lord	-13999
aceae	-14000
▁Pred	-14001
▁Karen	-14002
▁Verde	-14003
▁refit	-14004
▁unoff	-14005
▁Monday	-14006
▁decomm	-14007
▁lowered	-14008
▁plastic	-14009
▁basement	-14010
▁deceased	-14011
▁automatic	-14012
▁perception	-14013
▁intelligent	-14014
▁availability	-14015
▁compensation	-14016
▁extraordinary	-14017
▁ND	-14018
▁260	-14019
▁ESP	-14020
▁Conv	-14021
▁Hond	-14022
▁perf	-14023
▁Glass	-14024
▁Tiger	-14025
▁blank	-14026
taining	-14027
▁Artist	-14028
▁Panama	-14029
▁downed	-14030
▁safely	-14031
▁scales	-14032
▁Variety	-14033
▁excited	-14034
▁realize	-14035
▁sexuality	-14036
▁limitations	-14037
ikes	-14038
▁oral	-14039
▁ware	-14040
▁Nolan	-14041
▁Conrad	-14042
▁Powers	-14043
▁betray	-14044
▁guided	-14045
▁Finnish	-14046
▁amazing	-14047
▁pressed	-14048
▁resolve	-14049
▁Florence	-14050
▁persisted	-14051
ente	-14052
▁280	-14053
▁Lan	-14054
▁tab	-14055
▁Anat	-14056
▁Cord	-14057
▁Wrest	-14058
▁crust	-14059
▁proven	-14060
▁Formula	-14061
▁Hammond	-14062
▁remarks	-14063
rawl	-14064
▁Hat	-14065
▁Was	-14066
▁Zoo	-14067
▁ost	-14068
atern	-14069
▁axis	-14070
▁wors	-14071
▁Chuck	-14072
▁reiss	-14073
▁Trench	-14074
▁Britney	-14075
▁McMahon	-14076
▁bassist	-14077
▁Gameplay	-14078
▁carefully	-14079
▁varieties	-14080
▁specialist	-14081
▁enforcement	-14082
abad	-14083
oton	-14084
▁UBS	-14085
▁Tell	-14086
ogical	-14087
▁Roads	-14088
▁Stage	-14089
▁Truth	-14090
▁fails	-14091
▁freed	-14092
▁Collect	-14093
▁exagger	-14094
▁nucleus	-14095
▁Muhammad	-14096
▁clearing	-14097
▁darkness	-14098
▁particle	-14099
▁prohibited	-14100
▁recreational	-14101
atsu	-14102
▁Loy	-14103
▁ank	-14104
thood	-14105
uates	-14106
alford	-14107
▁Solid	-14108
▁burst	-14109
rically	-14110
▁Survey	-14111
overning	-14112
▁caution	-14113
▁Damascus	-14114
▁realizes	-14115
▁suburban	-14116
▁Bulgarian	-14117
▁accidents	-14118
▁diagnosis	-14119
▁extinction	-14120
ET	-14121
jud	-14122
▁Nu	-14123
enton	-14124
illon	-14125
▁Erie	-14126
▁Niss	-14127
▁Raid	-14128
elfare	-14129
luence	-14130
▁trump	-14131
▁Shadow	-14132
▁bullet	-14133
▁unnamed	-14134
istically	-14135
▁commerce	-14136
▁conquered	-14137
▁millimeter	-14138
elin	-14139
▁Sag	-14140
▁Sep	-14141
▁Doll	-14142
▁boom	-14143
agonal	-14144
▁Birth	-14145
▁bonds	-14146
▁eaten	-14147
▁antiqu	-14148
▁meteor	-14149
▁orbits	-14150
▁Sergeant	-14151
▁realised	-14152
▁Timberlake	-14153
▁adaptations	-14154
▁locomotives	-14155
▁prosecution	-14156
▁disappointment	-14157
arte	-14158
lesi	-14159
▁144	-14160
▁Hig	-14161
inely	-14162
▁Cock	-14163
▁Jard	-14164
▁toss	-14165
▁parad	-14166
▁param	-14167
▁semif	-14168
▁Combat	-14169
▁Outside	-14170
▁cameras	-14171
▁choices	-14172
▁courage	-14173
▁Yankovic	-14174
▁isotopes	-14175
▁controlling	-14176
▁mathematical	-14177
EF	-14178
opl	-14179
umni	-14180
▁lod	-14181
▁Arms	-14182
▁Joel	-14183
rified	-14184
▁Armed	-14185
▁Maple	-14186
▁Sport	-14187
▁lobby	-14188
▁Anders	-14189
▁Illust	-14190
▁martin	-14191
▁traged	-14192
▁Mounted	-14193
▁customs	-14194
▁choosing	-14195
▁spectrum	-14196
▁accordance	-14197
▁storylines	-14198
▁technologies	-14199
zig	-14200
empl	-14201
oque	-14202
▁Phel	-14203
▁cats	-14204
▁rush	-14205
▁illeg	-14206
▁mobil	-14207
▁Arctic	-14208
▁Capcom	-14209
▁heroes	-14210
▁slowed	-14211
▁transp	-14212
▁stepped	-14213
▁Fletcher	-14214
▁adoption	-14215
▁contrary	-14216
▁midnight	-14217
▁relevant	-14218
▁secretly	-14219
▁afterward	-14220
▁OC	-14221
▁SH	-14222
▁XV	-14223
ipse	-14224
▁147	-14225
▁bend	-14226
▁patch	-14227
▁seize	-14228
ropolis	-14229
▁Heming	-14230
▁Valent	-14231
▁defeats	-14232
▁depends	-14233
▁enacted	-14234
▁absolutely	-14235
orp	-14236
lyph	-14237
▁ump	-14238
▁....	-14239
▁Core	-14240
asants	-14241
▁Chron	-14242
▁Glenn	-14243
▁Steam	-14244
▁Barker	-14245
unciation	-14246
▁anywhere	-14247
▁mushroom	-14248
▁Middlesex	-14249
▁governing	-14250
▁definitely	-14251
vo	-14252
mat	-14253
phan	-14254
▁1851	-14255
▁Lans	-14256
▁riot	-14257
▁tool	-14258
ocaust	-14259
▁integ	-14260
▁namely	-14261
▁Northumb	-14262
▁maneuver	-14263
▁pointing	-14264
▁Principal	-14265
▁Salisbury	-14266
▁negotiate	-14267
▁waterline	-14268
▁delegation	-14269
▁regulation	-14270
▁consequently	-14271
icia	-14272
▁aug	-14273
▁ram	-14274
olesc	-14275
▁1854	-14276
▁Mile	-14277
▁albeit	-14278
▁locked	-14279
▁Observer	-14280
▁Ultimate	-14281
▁brigades	-14282
▁emissions	-14283
▁highlights	-14284
▁Intelligence	-14285
▁Bism	-14286
▁pige	-14287
▁rows	-14288
▁Floyd	-14289
▁monks	-14290
ipelago	-14291
▁Crosby	-14292
▁Strait	-14293
▁divide	-14294
▁Chapter	-14295
▁Ferrari	-14296
▁exhaust	-14297
▁endorsed	-14298
▁comprises	-14299
▁decompression	-14300
aque	-14301
▁ore	-14302
▁sus	-14303
adequ	-14304
neath	-14305
rance	-14306
▁Cool	-14307
berger	-14308
▁Remix	-14309
▁Mongol	-14310
▁Single	-14311
▁thinks	-14312
▁Windsor	-14313
▁nearest	-14314
▁suspect	-14315
▁monsters	-14316
▁breakdown	-14317
▁incorrect	-14318
▁testimony	-14319
▁confronted	-14320
▁conviction	-14321
ahu	-14322
jar	-14323
rys	-14324
▁AF	-14325
▁na	-14326
ishn	-14327
mons	-14328
qual	-14329
▁Ard	-14330
▁Bav	-14331
▁hin	-14332
aston	-14333
ailand	-14334
omorph	-14335
▁intim	-14336
▁spare	-14337
itating	-14338
▁Munich	-14339
▁Scotia	-14340
▁Popular	-14341
▁Private	-14342
▁binding	-14343
▁Taxonomy	-14344
▁teammates	-14345
▁Ultimately	-14346
▁Cu	-14347
adic	-14348
iott	-14349
atoes	-14350
heres	-14351
osely	-14352
world	-14353
▁synt	-14354
▁Cuban	-14355
▁imper	-14356
▁accent	-14357
▁kicked	-14358
▁wouldn	-14359
▁barrier	-14360
▁concluding	-14361
▁innovative	-14362
anca	-14363
asis	-14364
colm	-14365
enez	-14366
▁Gem	-14367
oints	-14368
opoly	-14369
idance	-14370
▁Alpha	-14371
▁Gould	-14372
▁smart	-14373
▁aliens	-14374
▁repeat	-14375
▁package	-14376
▁stomach	-14377
▁Scouting	-14378
▁consumed	-14379
▁monuments	-14380
▁resembles	-14381
▁trademark	-14382
▁descriptions	-14383
opy	-14384
vas	-14385
▁JG	-14386
lend	-14387
▁Try	-14388
ctive	-14389
opran	-14390
▁Amaz	-14391
▁Tank	-14392
▁Wilm	-14393
▁Cohen	-14394
▁Motion	-14395
▁nickel	-14396
▁Jacques	-14397
▁captive	-14398
▁Aircraft	-14399
▁Persians	-14400
▁borrowed	-14401
▁tendency	-14402
▁Brunswick	-14403
▁activated	-14404
▁inflicted	-14405
▁physician	-14406
▁plutonium	-14407
▁tournaments	-14408
dict	-14409
stad	-14410
uana	-14411
▁Hyd	-14412
▁Wed	-14413
▁Dana	-14414
▁Fear	-14415
▁lingu	-14416
▁spont	-14417
▁Porter	-14418
▁export	-14419
▁insect	-14420
▁skiing	-14421
▁Concert	-14422
▁Manager	-14423
▁Perfect	-14424
▁teenage	-14425
▁peripher	-14426
▁reliable	-14427
▁turnpike	-14428
▁protective	-14429
▁Environmental	-14430
LA	-14431
zi	-14432
oyle	-14433
▁fut	-14434
▁jam	-14435
inate	-14436
raine	-14437
▁Lucy	-14438
▁Pend	-14439
▁Ster	-14440
▁ants	-14441
▁duck	-14442
▁Franz	-14443
▁Shore	-14444
▁schem	-14445
asterly	-14446
▁Arabic	-14447
▁Syrian	-14448
▁worlds	-14449
▁Capitol	-14450
▁doubled	-14451
▁molecules	-14452
aqu	-14453
ele	-14454
rav	-14455
phal	-14456
▁dio	-14457
▁mes	-14458
veston	-14459
▁Carson	-14460
▁Bahamas	-14461
▁Metroid	-14462
▁escapes	-14463
▁healthy	-14464
▁inquiry	-14465
▁calendar	-14466
▁quantity	-14467
vić	-14468
▁je	-14469
▁Mull	-14470
▁cave	-14471
ictions	-14472
▁Singer	-14473
▁Spokane	-14474
▁leather	-14475
▁rehabil	-14476
utherford	-14477
▁colleague	-14478
▁northbound	-14479
▁underneath	-14480
11	-14481
lia	-14482
icon	-14483
ongs	-14484
alley	-14485
▁volunt	-14486
tershire	-14487
▁hanging	-14488
▁outlets	-14489
▁designers	-14490
▁inability	-14491
▁struggles	-14492
▁Breckinridge	-14493
▁preservation	-14494
py	-14495
cat	-14496
▁SP	-14497
▁Kol	-14498
▁Thorn	-14499
▁lease	-14500
▁Double	-14501
▁detached	-14502
▁ensemble	-14503
▁nitrogen	-14504
▁retaining	-14505
▁detachment	-14506
▁neighborhoods	-14507
DT	-14508
▁Aw	-14509
▁dy	-14510
keys	-14511
outed	-14512
▁Reds	-14513
▁XIII	-14514
▁Yang	-14515
▁Beast	-14516
▁Georget	-14517
▁cluster	-14518
▁seventeen	-14519
▁introduces	-14520
▁substantially	-14521
IT	-14522
wig	-14523
bane	-14524
blem	-14525
▁fart	-14526
▁syll	-14527
lining	-14528
▁Willie	-14529
▁clever	-14530
▁unhappy	-14531
▁seasonal	-14532
▁Galveston	-14533
▁Associated	-14534
▁collective	-14535
▁incorporating	-14536
▁Pé	-14537
unar	-14538
▁133	-14539
▁Imm	-14540
▁1857	-14541
▁Peak	-14542
▁beds	-14543
▁Bever	-14544
▁Julia	-14545
▁acute	-14546
▁shocked	-14547
▁Thailand	-14548
▁contents	-14549
▁merchand	-14550
▁phylogen	-14551
▁conductor	-14552
▁democracy	-14553
▁satisfied	-14554
lein	-14555
▁Earp	-14556
▁deer	-14557
▁ears	-14558
▁swall	-14559
▁rookie	-14560
▁scorer	-14561
▁inadequ	-14562
▁commended	-14563
▁keyboards	-14564
▁Alexandria	-14565
▁favourable	-14566
▁deteriorated	-14567
ör	-14568
▁ba	-14569
itsu	-14570
irmed	-14571
graded	-14572
▁Comic	-14573
▁Shawn	-14574
▁discl	-14575
▁crowds	-14576
▁laying	-14577
▁plumage	-14578
▁sounded	-14579
▁substit	-14580
▁infected	-14581
▁shelters	-14582
▁thriller	-14583
▁variants	-14584
▁Paramount	-14585
▁maneuvers	-14586
▁placement	-14587
▁shortened	-14588
▁specified	-14589
▁referendum	-14590
▁correspondence	-14591
▁.3	-14592
▁NME	-14593
▁rod	-14594
▁Gand	-14595
▁Mine	-14596
orters	-14597
▁Drake	-14598
▁Herze	-14599
▁relay	-14600
▁Eisenh	-14601
▁Oldham	-14602
▁abrupt	-14603
▁median	-14604
▁Malcolm	-14605
▁activist	-14606
▁exceeded	-14607
▁reconcil	-14608
▁stopping	-14609
▁businessman	-14610
▁restaurants	-14611
elda	-14612
▁Neg	-14613
▁Poe	-14614
▁Wid	-14615
▁née	-14616
otted	-14617
▁cord	-14618
▁Ferry	-14619
▁Recre	-14620
▁Vaugh	-14621
changes	-14622
▁Bergen	-14623
▁Mirror	-14624
▁welcom	-14625
ighthouse	-14626
▁momentum	-14627
▁Beautiful	-14628
▁Guatemala	-14629
▁dominance	-14630
▁shipments	-14631
▁assignment	-14632
dal	-14633
rag	-14634
▁Chi	-14635
▁HIV	-14636
▁hes	-14637
▁mim	-14638
▁1858	-14639
▁gifts	-14640
▁solve	-14641
▁analys	-14642
▁homage	-14643
▁unders	-14644
▁coupled	-14645
▁runners	-14646
▁organize	-14647
▁responses	-14648
▁Eisenhower	-14649
cip	-14650
evo	-14651
achi	-14652
quet	-14653
▁Pra	-14654
▁mere	-14655
▁Shank	-14656
▁sting	-14657
▁exempl	-14658
▁mosque	-14659
▁clinical	-14660
▁juvenile	-14661
▁meantime	-14662
▁accepting	-14663
▁limestone	-14664
▁altogether	-14665
▁attributes	-14666
▁countryside	-14667
▁AN	-14668
oeuv	-14669
▁RNA	-14670
▁Rah	-14671
▁gig	-14672
▁Male	-14673
▁Page	-14674
▁Pale	-14675
▁funk	-14676
▁Stern	-14677
▁roofs	-14678
▁unity	-14679
▁beings	-14680
▁trophy	-14681
uxiliary	-14682
▁Elliott	-14683
▁Gardens	-14684
▁anthrop	-14685
▁conclus	-14686
▁freight	-14687
▁orbital	-14688
▁wanting	-14689
▁criteria	-14690
▁Shackleton	-14691
▁prominence	-14692
▁intercepted	-14693
▁investigations	-14694
idy	-14695
▁es	-14696
asse	-14697
▁Lac	-14698
avity	-14699
▁hell	-14700
▁Claud	-14701
▁united	-14702
▁Chapman	-14703
▁Hassett	-14704
▁Olivier	-14705
▁Written	-14706
▁oversaw	-14707
▁maritime	-14708
▁peaceful	-14709
▁amendment	-14710
▁unwilling	-14711
▁reflecting	-14712
▁civilization	-14713
▁Og	-14714
isch	-14715
issa	-14716
▁Ivy	-14717
▁Jag	-14718
▁sax	-14719
▁Balk	-14720
▁Gwen	-14721
▁rely	-14722
▁Janet	-14723
▁Jesse	-14724
▁Mered	-14725
▁Orton	-14726
▁Towns	-14727
▁Greeks	-14728
▁judged	-14729
▁tribal	-14730
▁Origins	-14731
▁Writers	-14732
▁admired	-14733
▁cinemat	-14734
▁fitting	-14735
▁preview	-14736
▁organisations	-14737
erek	-14738
ovny	-14739
ubles	-14740
▁Adri	-14741
▁Axis	-14742
▁Jenny	-14743
▁Pitch	-14744
▁Sugar	-14745
▁alert	-14746
▁peers	-14747
▁tends	-14748
▁Angela	-14749
▁Compan	-14750
▁visuals	-14751
▁Duchovny	-14752
▁Economic	-14753
▁Meredith	-14754
▁exciting	-14755
▁favoured	-14756
▁frigates	-14757
▁Hemingway	-14758
▁meanwhile	-14759
▁reviewing	-14760
▁Bangladesh	-14761
▁supposedly	-14762
▁FC	-14763
agne	-14764
imus	-14765
etics	-14766
raits	-14767
▁Gael	-14768
▁disk	-14769
houses	-14770
▁Buffy	-14771
avilion	-14772
▁Sounds	-14773
▁Volume	-14774
▁occupy	-14775
▁careers	-14776
▁convoys	-14777
▁renowned	-14778
▁Robertson	-14779
▁Cos	-14780
▁Nan	-14781
▁cig	-14782
▁1849	-14783
▁1855	-14784
▁Falk	-14785
▁Saud	-14786
▁bred	-14787
▁bure	-14788
▁carn	-14789
ayette	-14790
▁Linda	-14791
▁Pluto	-14792
▁drops	-14793
▁Lakers	-14794
▁Chemical	-14795
▁Hispanic	-14796
▁Artillery	-14797
▁performer	-14798
▁Distribution	-14799
▁Ng	-14800
▁550	-14801
▁Lak	-14802
iolet	-14803
▁Torn	-14804
▁cros	-14805
▁dign	-14806
▁lava	-14807
▁Rhode	-14808
▁oxide	-14809
iggered	-14810
▁fierce	-14811
▁leaked	-14812
▁rumors	-14813
▁Gabriel	-14814
▁primitive	-14815
▁conscience	-14816
▁instructor	-14817
isa	-14818
▁Lor	-14819
onnell	-14820
▁annoy	-14821
▁cheer	-14822
▁rises	-14823
▁Beyond	-14824
▁prints	-14825
▁Amazing	-14826
▁batsmen	-14827
▁silence	-14828
▁factions	-14829
▁retiring	-14830
▁siblings	-14831
rimination	-14832
▁everybody	-14833
▁graduation	-14834
▁legitimate	-14835
▁accelerated	-14836
oub	-14837
the	-14838
vik	-14839
girl	-14840
otta	-14841
vana	-14842
▁Jak	-14843
▁Tong	-14844
▁Venez	-14845
▁facts	-14846
▁fever	-14847
▁realm	-14848
▁scope	-14849
▁stuck	-14850
▁Cherry	-14851
▁Manuel	-14852
▁Surviv	-14853
▁magnet	-14854
▁thermal	-14855
▁enlarged	-14856
▁copyright	-14857
▁ecosystem	-14858
▁triggered	-14859
▁immigration	-14860
▁effectiveness	-14861
zan	-14862
riet	-14863
▁320	-14864
▁Hod	-14865
amped	-14866
▁Cert	-14867
▁Folk	-14868
▁Pitt	-14869
▁tiny	-14870
opters	-14871
▁Joyce	-14872
▁Minaj	-14873
▁Shane	-14874
▁Leader	-14875
▁Mobile	-14876
▁Cornish	-14877
▁Freeway	-14878
▁Kubrick	-14879
▁balloon	-14880
▁entries	-14881
▁achieving	-14882
▁superhero	-14883
▁decoration	-14884
cu	-14885
amy	-14886
aye	-14887
igny	-14888
▁ACC	-14889
▁Haven	-14890
▁Ports	-14891
▁blame	-14892
redited	-14893
▁Sherman	-14894
▁Working	-14895
▁suburbs	-14896
▁Cardinal	-14897
▁Holocaust	-14898
▁mitochond	-14899
[...]
